#version: 0.2
##h ##e
t ##he
##i ##n
##e ##r
##e ##d
##o ##u
##n ##d
##in ##g
t ##o
##a ##t
##r ##e
t ##h
##i ##s
a ##nd
##a ##s
##e ##n
##a ##n
##o ##n
##l ##l
h ##e
##a ##r
##o ##r
##e ##s
o ##f
i ##n
##i ##t
` ##`
' ##'
h ##a
##o ##m
y ##ou
##o ##w
b ##e
h ##er
##i ##d
##u ##t
w ##as
i ##t
##o ##t
##l ##e
##l ##d
##a ##c
##g ##h
o ##n
s ##he
##e ##t
s ##t
h ##is
th ##at
##l ##y
##i ##m
##a ##y
##s ##t
##v ##e
##i ##c
w ##h
a ##s
r ##e
m ##y
m ##e
##a ##d
##a ##l
##s ##e
##o ##o
##v ##er
##gh ##t
##ou ##ld
##u ##r
##it ##h
##i ##r
f ##or
w ##ith
##en ##t
d ##o
a ##n
##k ##e
ha ##d
l ##i
a ##t
s ##h
##a ##m
w ##e
b ##ut
##i ##on
h ##im
##a ##ll
f ##r
##he ##r
s ##e
s ##a
n ##ot
##t ##er
##i ##ght
##k ##ed
##p ##p
n ##e
##r ##o
##ac ##k
s ##o
##a ##in
##c ##h
##i ##ll
##an ##t
##c ##e
##i ##l
k ##n
o ##ut
wh ##at
##o ##re
i ##s
##e ##l
u ##p
##ou ##t
##u ##st
##r ##ou
##r ##i
w ##he
ha ##ve
##om ##e
sa ##id
the ##y
n ##o
##h ##ing
##ar ##d
th ##is
c ##h
fr ##om
g ##o
s ##u
d ##id
a ##b
##r ##a
##c ##t
l ##e
##n ##t
##k ##ing
##er ##e
a ##ll
##i ##e
d ##e
a ##l
##u ##s
##on ##e
c ##ould
##in ##d
l ##oo
b ##ack
w ##ould
w ##ere
##t ##o
##he ##d
li ##ke
f ##e
i ##f
##es ##s
##ar ##t
##g ##e
##ow ##n
##es ##t
on ##e
c ##l
the ##re
##u ##n
##oo ##d
s ##p
c ##on
##s ##s
j ##ust
a ##g
in ##to
##a ##b
##as ##t
##a ##u
whe ##n
w ##or
e ##x
kn ##ow
##er ##s
##r ##y
r ##o
##id ##e
ab ##out
##e ##p
##c ##k
##ac ##e
##a ##nd
b ##l
o ##r
ha ##nd
##all ##y
##a ##ke
the ##n
##u ##m
se ##e
the ##m
you ##r
w ##ant
##w ##ay
o ##ver
##u ##l
t ##e
an ##y
##o ##p
a ##re
##on ##g
##l ##f
e ##y
be ##en
##is ##t
##at ##e
s ##m
g ##et
##v ##en
t ##im
##a ##p
p ##l
d ##own
l ##o
c ##o
e ##ver
s ##ome
m ##o
to ##o
##i ##g
##am ##e
b ##o
ag ##ain
##ur ##n
##f ##t
th ##ou
c ##om
##a ##re
wh ##o
##rou ##nd
m ##an
of ##f
##at ##ion
##ic ##e
a ##r
b ##r
tim ##e
n ##ow
h ##ow
##in ##k
f ##l
b ##y
##f ##f
p ##o
##ou ##s
ey ##es
##a ##g
he ##ad
u ##s
q ##u
m ##ore
##ic ##k
##i ##ve
##or ##t
##in ##e
##u ##ll
c ##an
s ##l
e ##n
##a ##k
s ##c
t ##r
##pp ##ed
##e ##ct
##t ##her
##ot ##her
t ##w
##ou ##nd
##o ##s
th ##an
u ##n
##ou ##r
##nd ##er
##it ##t
##se ##lf
e ##ven
the ##ir
##v ##ed
w ##ay
i ##m
##f ##ore
##l ##ed
##i ##le
##d ##d
be ##fore
g ##r
##i ##re
ever ##y
a ##round
w ##ill
. ##.
##re ##at
s ##ay
go ##ing
o ##ther
##as ##s
.. ##.
##u ##re
p ##re
##v ##ing
her ##e
p ##ro
a ##f
s ##om
r ##ight
##t ##h
##ad ##e
som ##et
on ##ly
th ##ink
##rou ##gh
be ##c
t ##urn
th ##rough
ne ##ed
g ##l
##u ##e
##i ##p
loo ##ked
##e ##ar
##er ##ed
##o ##se
loo ##k
p ##r
##f ##e
l ##et
thou ##ght
##it ##e
sh ##ould
s ##w
th ##ing
##w ##ard
##ac ##t
##is ##s
st ##ill
af ##ter
a ##way
##o ##l
g ##u
kn ##e
somet ##hing
f ##ace
##t ##hing
a ##m
do ##or
##p ##t
m ##u
##on ##t
ex ##p
##it ##y
g ##ood
##i ##es
##au ##se
l ##ong
##an ##g
ne ##ver
##m ##ent
w ##at
a ##c
##en ##ed
p ##e
w ##a
##ac ##h
##d ##y
##i ##z
be ##t
fe ##el
l ##l
##b ##le
g ##ot
we ##ll
as ##ked
whe ##re
c ##he
##ab ##le
c ##ar
##ar ##k
tw ##o
##re ##e
o ##p
##at ##ed
f ##o
##w ##n
##an ##ce
##e ##ll
f ##ir
ar ##m
m ##ade
##c ##hed
wh ##y
##ic ##h
mu ##ch
v ##e
##m ##ed
##a ##ve
##at ##her
##i ##ous
o ##ur
bec ##ause
te ##ll
##t ##ing
re ##m
ro ##om
kne ##w
d ##is
##itt ##le
##a ##ge
##a ##king
##at ##h
u ##nder
h ##o
l ##ittle
m ##om
##t ##e
##n ##ing
##ad ##y
##ou ##gh
d ##ay
c ##r
k ##e
m ##ake
##er ##y
c ##ome
##c ##o
t ##ake
##el ##t
##g ##g
c ##all
ha ##pp
w ##al
e ##m
m ##ay
##ri ##ed
##as ##e
##f ##ul
##k ##s
fir ##st
##re ##ss
con ##t
##s ##ide
##b ##e
##r ##u
##a ##ir
v ##o
##b ##er
it ##s
f ##elt
j ##o
##en ##ce
su ##re
w ##o
c ##a
##v ##es
st ##art
hand ##s
##i ##ed
t ##al
##an ##s
##ar ##ed
he ##l
p ##ull
want ##ed
too ##k
##a ##h
com ##p
##in ##t
turn ##ed
##e ##m
n ##ight
e ##l
a ##pp
s ##k
re ##ally
##l ##ing
##p ##s
p ##er
d ##es
m ##ar
##ot ##h
t ##ry
##i ##ld
##i ##ly
again ##st
vo ##ice
s ##ur
h ##as
a ##d
##u ##ck
##i ##a
p ##art
r ##es
be ##l
##u ##d
f ##in
h ##ard
##q ##u
pe ##op
re ##al
##c ##ed
le ##ft
wh ##ich
##en ##s
##b ##b
v ##ery
be ##h
hel ##p
c ##ou
peop ##le
c ##ame
to ##ld
an ##other
##d ##s
l ##ast
p ##ut
##ow ##ed
##is ##e
s ##ide
li ##fe
##e ##en
##oo ##k
##is ##h
wh ##ile
##ro ##ss
bo ##dy
w ##om
wa ##it
##t ##y
f ##ind
fe ##w
s ##n
##a ##v
sp ##e
g ##ra
any ##thing
re ##p
mom ##ent
y ##es
##a ##z
be ##ing
##l ##es
ne ##w
##he ##s
w ##ar
b ##reat
not ##hing
##n ##ed
##g ##et
p ##h
##x ##t
st ##r
o ##wn
d ##i
beh ##ind
st ##e
ke ##ep
u ##nt
##ion ##s
y ##ear
en ##ough
to ##ward
w ##ent
li ##ght
l ##au
do ##es
m ##at
m ##ight
##ou ##se
sa ##w
w ##r
ha ##ir
b ##ed
d ##r
##c ##i
##i ##gh
##p ##er
be ##g
d ##ark
cl ##os
s ##ound
g ##ir
o ##ld
h ##u
unt ##il
thing ##s
lo ##ve
m ##ind
c ##le
##out ##h
##way ##s
thou ##gh
i ##d
##ar ##s
may ##be
b ##u
th ##ose
s ##et
##am ##p
##ch ##ing
##a ##il
op ##en
e ##nd
##y ##s
a ##ct
##ar ##ing
loo ##king
f ##ing
##n ##ess
on ##ce
##n ##g
##or ##d
##o ##st
##or ##m
mo ##st
##re ##am
##in ##ce
c ##are
##n ##e
##ie ##nd
b ##oth
g ##i
gir ##l
fr ##iend
##oo ##l
al ##ways
as ##s
##dd ##ed
ne ##xt
##on ##s
##c ##ked
##n ##er
pl ##ace
s ##il
at ##t
c ##ur
m ##in
ho ##ld
##ow ##er
im ##p
o ##h
k ##ill
sm ##il
h ##ouse
m ##outh
in ##side
s ##at
r ##un
f ##ound
fr ##ont
##r ##ow
p ##le
##t ##ed
he ##art
in ##st
with ##out
de ##c
s ##er
g ##re
##l ##ess
##at ##ing
h ##ome
##i ##an
re ##l
bl ##ood
s ##ame
##or ##y
wor ##k
##a ##w
every ##thing
r ##est
##u ##ally
some ##one
him ##self
sh ##o
st ##and
in ##ter
sm ##all
##ar ##y
wom ##an
h ##op
b ##it
b ##re
##s ##w
try ##ing
he ##ard
bet ##ter
o ##k
arm ##s
pull ##ed
fl ##o
c ##or
d ##ra
r ##et
c ##our
bet ##w
e ##ach
betw ##een
f ##ather
st ##re
g ##ive
##is ##ed
k ##iss
me ##an
w ##ind
##co ##nd
m ##other
see ##med
bl ##ack
##i ##er
de ##ep
##un ##g
sm ##ile
##r ##ed
se ##cond
an ##sw
##pp ##ing
##i ##f
##an ##ge
##ter ##ed
f ##ar
an ##g
al ##m
##t ##ain
ac ##ross
##ab ##ly
##s ##p
f ##am
p ##ain
st ##op
my ##self
h ##ur
st ##o
th ##ree
##re ##ady
##s ##h
##us ##ed
s ##ince
d ##ri
al ##ready
p ##ass
##e ##ver
s ##le
##au ##ght
start ##ed
po ##int
##um ##p
qu ##ick
alm ##ost
g ##ave
st ##u
breat ##h
##ic ##t
d ##ont
year ##s
m ##ust
bel ##ie
st ##ay
##ac ##hed
st ##ood
m ##en
k ##ind
##i ##x
##an ##k
rem ##em
e ##ar
a ##ir
el ##se
d ##one
m ##or
w ##all
d ##ro
ok ##ay
fo ##ll
##or ##s
do ##ing
he ##ll
##get ##her
t ##ried
t ##ra
##um ##b
wor ##ld
o ##b
##i ##ble
##ing ##s
li ##ps
wal ##ked
cl ##ose
##an ##e
wor ##ds
b ##ig
e ##v
h ##um
t ##ou
m ##on
sl ##ow
##at ##er
min ##ut
to ##gether
##re ##w
##iz ##ed
fe ##et
no ##dded
y ##e
s ##ig
##ot ##t
##s ##o
##p ##le
##en ##se
did ##nt
##us ##hed
wo ##nder
he ##ld
ne ##ar
se ##en
##p ##h
m ##et
man ##y
m ##iss
##ur ##ed
##re ##n
the ##se
l ##ot
r ##a
qu ##est
under ##st
##ull ##y
##an ##c
##as ##h
b ##ar
di ##ff
##ent ##ly
m ##a
su ##pp
in ##t
##g ##s
##ir ##t
##as ##on
t ##re
s ##im
wh ##is
p ##ers
e ##nt
##o ##nd
##ic ##ked
##in ##king
he ##ar
##p ##r
pl ##ay
y ##et
tal ##k
* ##*
say ##s
mo ##ve
##it ##her
con ##f
b ##ad
##ow ##s
##ak ##es
flo ##or
wat ##er
exp ##l
le ##ave
e ##d
smil ##ed
m ##r
##i ##b
##d ##ay
s ##or
a ##w
r ##ed
##i ##v
##ain ##ed
##g ##n
in ##c
g ##reat
d ##am
g ##one
st ##ep
##gg ##ed
##ow ##ing
t ##able
her ##self
##y ##ing
##u ##b
ac ##c
e ##as
##e ##k
fing ##ers
##i ##et
p ##ast
che ##st
ch ##ar
h ##our
need ##ed
##ent ##ion
pro ##b
##d ##er
##i ##ver
beg ##an
d ##ist
##n ##y
##he ##re
##is ##hed
##ac ##ed
n ##ame
##i ##ft
al ##so
con ##s
##ect ##ed
sw ##e
get ##ting
sh ##ook
l ##u
ha ##lf
##ep ##t
call ##ed
##ri ##e
al ##ong
ye ##ah
##ce ##pt
b ##ro
##ate ##ly
t ##er
so ##on
f ##ore
cour ##se
b ##en
so ##ft
com ##ing
b ##us
fin ##ally
##dd ##en
f ##all
prob ##ably
id ##e
de ##ad
ch ##ild
p ##a
##ic ##al
f ##re
su ##ch
su ##dden
com ##m
in ##v
##in ##ed
go ##d
le ##an
le ##ast
##b ##o
b ##est
happ ##ened
c ##ra
mo ##ved
st ##ra
p ##at
h ##igh
co ##l
po ##ss
cont ##in
ret ##urn
##ct ##ion
pers ##on
##er ##ing
ey ##e
##us ##h
re ##ached
sor ##ry
belie ##ve
res ##p
sk ##in
##m ##s
wh ##ite
l ##ater
ph ##one
f ##ire
sto ##pped
g ##az
##n ##a
##bb ##ed
bo ##y
t ##ight
l ##ist
m ##aking
feel ##ing
##id ##d
de ##m
j ##ack
sur ##pr
##i ##pped
as ##k
##it ##ion
op ##ened
pre ##ss
a ##p
me ##et
any ##one
##g ##ed
r ##an
j ##e
us ##ed
##itt ##ing
s ##it
in ##f
fam ##ily
remem ##ber
sle ##ep
i ##nd
underst ##and
##ter ##s
##en ##ing
##re ##t
##u ##al
every ##one
h ##or
pl ##an
##ve ##l
##ious ##ly
ide ##a
h ##ot
se ##c
d ##ire
f ##act
##id ##ed
br ##other
##f ##ully
t ##aking
co ##ver
diff ##er
mor ##ning
##are ##nt
should ##er
m ##ag
for ##ward
c ##ut
g ##round
b ##es
ne ##ck
f ##ight
c ##at
##ap ##s
l ##ar
k ##ept
p ##ower
re ##ad
##in ##s
d ##ad
hur ##t
to ##p
##an ##ced
comp ##le
re ##g
##ro ##om
you ##ng
##c ##er
qu ##iet
cle ##ar
##a ##ut
per ##f
quick ##ly
rep ##l
day ##s
re ##c
##l ##o
##o ##ke
f ##our
##he ##ad
v ##is
##c ##he
pr ##ot
##u ##ed
ro ##ll
##ak ##en
gu ##y
slow ##ly
##s ##c
ab ##le
re ##f
##iz ##e
##c ##c
u ##se
al ##one
d ##el
##n ##o
p ##ar
ex ##c
wr ##ong
on ##to
le ##a
##in ##ess
##ent ##s
##o ##g
th ##inking
ha ##ving
clos ##ed
r ##u
c ##ap
re ##ady
##ut ##h
lau ##gh
f ##ull
ple ##ase
d ##ress
m ##ine
##i ##al
st ##ared
s ##ch
su ##n
tal ##king
d ##et
fe ##ll
##ic ##ally
h ##it
quest ##ion
wat ##ched
e ##ither
th ##ro
##m ##m
li ##ft
co ##ll
po ##l
##ou ##nt
f ##ill
##f ##ort
minut ##es
me ##m
##c ##king
whis ##p
b ##ab
be ##aut
t ##y
##air ##s
f ##ine
pre ##t
##e ##ad
t ##ri
f ##ig
act ##ually
c ##al
out ##side
##is ##ter
##ul ##t
##a ##pp
d ##ou
ha ##ll
ch ##ap
##w ##here
co ##ld
##g ##hed
##t ##on
##et ##s
c ##er
mat ##ter
sudden ##ly
gu ##ess
p ##ur
v ##amp
##g ##er
h ##ar
gl ##ass
wor ##d
i ##ll
lo ##st
l ##ou
gaz ##e
##u ##p
e ##le
k ##ing
##one ##y
m ##us
hop ##e
s ##y
re ##ason
stand ##ing
m ##ur
he ##s
l ##ow
##i ##fe
app ##ear
b ##ur
##q ##ue
sh ##ort
pr ##om
##at ##t
##p ##ed
##n ##ight
tim ##es
wal ##k
l ##and
bl ##ue
##ation ##s
who ##le
pret ##ty
ex ##act
c ##aught
pre ##s
k ##id
##te ##nd
##ip ##s
than ##k
##id ##es
##as ##ed
f ##ree
##a ##x
inst ##ead
##t ##en
bre ##ak
answ ##er
lau ##ghed
wait ##ing
##e ##e
gr ##in
f ##ive
de ##ath
chap ##ter
f ##ur
comple ##te
se ##ver
##am ##es
##i ##o
##et ##h
friend ##s
##m ##an
l ##ay
##m ##a
war ##m
##al ##s
vamp ##ire
##ure ##s
bu ##ild
other ##s
t ##aken
ag ##o
sh ##ot
differ ##ent
de ##f
##ver ##s
##os ##ed
gu ##ard
sc ##ream
##ur ##ing
sh ##ow
sch ##ool
##ent ##y
look ##s
##rou ##ght
##i ##ke
le ##gs
cer ##tain
##ir ##ed
thro ##at
##it ##ed
me ##ant
fo ##ot
im ##ag
##k ##en
f ##un
str ##ong
to ##m
whisp ##ered
sh ##irt
a ##le
gl ##anced
##c ##us
g ##en
cont ##ro
b ##urn
b ##are
##id ##ing
perf ##ect
hum ##an
stra ##ight
in ##s
g ##un
br ##ing
##e ##ks
wind ##ow
##or ##ed
what ##ever
ch ##o
l ##ess
b ##rought
se ##x
##r ##ic
ch ##r
##o ##ck
##ac ##ked
sh ##ut
s ##ent
##o ##ve
un ##c
lar ##ge
hold ##ing
m ##ess
sig ##n
ste ##pped
exact ##ly
ad ##m
d ##ream
##m ##ing
tou ##ch
##at ##es
qu ##ite
##b ##y
wat ##ch
su ##b
lean ##ed
##z ##y
dis ##app
s ##ense
s ##itting
wat ##ching
c ##ross
happ ##y
cou ##nt
c ##ry
b ##ott
real ##ized
##c ##y
##ie ##ld
th ##ir
##p ##e
ent ##ire
##u ##nt
se ##at
s ##am
##i ##ful
le ##ad
c ##ent
##ang ##er
##l ##t
b ##ra
##ang ##ed
ch ##air
n ##ice
##l ##and
run ##ning
fing ##er
##ress ##ion
foll ##owed
n ##a
s ##ix
hour ##s
w ##ood
w ##in
k ##it
clos ##er
sever ##al
sh ##it
tr ##ue
gra ##bbed
contin ##ued
sh ##ru
fe ##ar
jo ##b
##b ##r
##ant ##s
repl ##ied
##ic ##ed
##i ##k
##is ##on
##ap ##e
l ##a
##el ##s
l ##ine
##ul ##ar
m ##ad
beaut ##iful
##as ##ter
##ot ##ion
att ##ention
th ##r
cl ##ot
##or ##n
w ##ra
de ##al
p ##ushed
##p ##l
##a ##pped
you ##re
##c ##es
dam ##n
ch ##ance
long ##er
##ac ##es
t ##en
y ##ell
tr ##ust
bes ##ide
h ##ung
bab ##y
##z ##e
app ##ro
##che ##n
say ##ing
spe ##ak
##c ##hes
to ##night
cons ##id
c ##ir
##re ##ad
should ##ers
inter ##est
##r ##act
mon ##th
b ##ag
contro ##l
he ##av
d ##in
gra ##nd
to ##wn
##it ##s
en ##g
to ##day
le ##ar
st ##ru
##i ##ff
te ##m
s ##qu
st ##om
sk ##y
sa ##fe
##j ##ect
##h ##aps
ap ##art
p ##ap
swe ##et
li ##ving
mo ##ving
p ##ri
c ##ase
per ##haps
m ##oney
s ##ing
pro ##ble
i ##r
sl ##ight
##g ##an
##ag ##ed
gi ##ven
##c ##ess
##d ##e
s ##ens
##in ##a
p ##ie
ch ##ange
f ##ast
sh ##ad
de ##v
sm ##ell
s ##ort
a ##v
te ##ars
##in ##es
cir ##c
kn ##own
ro ##ad
p ##al
##ist ##ed
kit ##chen
that ##s
##j ##o
p ##arent
s ##on
was ##nt
ro ##se
a ##dd
li ##ve
dro ##pped
m ##il
lea ##ving
cou ##ple
lo ##ved
t ##u
re ##co
##ant ##ly
ben ##e
h ##on
off ##ice
e ##ff
ab ##ove
tr ##uth
##b ##ed
dec ##ided
j ##ump
s ##ister
gre ##en
for ##m
ro ##ck
n ##at
wom ##en
##se ##l
g ##ri
##r ##or
i ##gn
bus ##iness
to ##r
p ##et
##on ##es
prot ##ect
e ##sc
c ##re
c ##ity
##s ##on
stre ##et
dou ##b
m ##ir
ale ##x
fill ##ed
##il ##ity
##ot ##s
d ##a
##ar ##r
r ##is
##im ##es
##ie ##w
c ##reat
##im ##e
ob ##v
##as ##hed
any ##way
##ie ##f
##id ##ent
##in ##y
##c ##ent
sp ##oke
wor ##king
pass ##ed
dire ##ct
##p ##ly
stom ##ach
complete ##ly
##bo ##dy
lift ##ed
##ou ##n
##un ##ch
sh ##ar
dr ##ink
parent ##s
##art ##h
sil ##ence
m ##ut
br ##ight
g ##as
ra ##ised
d ##an
ar ##ri
wor ##ry
see ##ing
tw ##enty
p ##ay
for ##g
cou ##n
cor ##ner
sec ##ret
t ##rou
n ##er
beg ##in
p ##ict
l ##ate
c ##e
r ##ather
fr ##own
st ##aring
wal ##king
s ##ar
em ##pt
gu ##ys
po ##s
b ##ook
hu ##nd
exp ##ression
supp ##osed
##ru ##pt
hund ##red
##ll ##y
kill ##ed
exp ##er
##med ##i
m ##akes
f ##ood
ed ##ge
##ain ##ing
s ##que
sh ##ift
happ ##en
##le ##y
im ##medi
##g ##ing
##ac ##ing
##nd ##ing
m ##ist
with ##in
##l ##ight
ab ##s
h ##ang
s ##ou
##an ##n
g ##ar
d ##ie
sh ##out
co ##ff
know ##ing
con ##n
cr ##ow
##l ##a
p ##icked
##on ##y
##st ##er
d ##u
##us ##hing
te ##eth
ex ##t
n ##orm
build ##ing
near ##ly
j ##ul
w ##ide
your ##self
sig ##hed
ple ##as
g ##ro
we ##ek
m ##ark
##ud ##e
gr ##ow
##ra ##id
se ##ar
##al ##ed
c ##am
##i ##ence
girl ##s
to ##ng
##il ##t
jo ##h
than ##ks
st ##ory
bo ##x
dra ##w
stu ##ff
up ##on
af ##raid
e ##at
con ##vers
cle ##an
thought ##s
cl ##a
toward ##s
##at ##or
c ##ant
gi ##ving
could ##nt
d ##anger
go ##ld
##ci ##al
##he ##l
##y ##ed
eas ##y
turn ##ing
clot ##hes
not ##iced
poss ##ible
exp ##ect
##le ##t
en ##jo
ad ##v
see ##m
de ##p
##ard ##s
return ##ed
##it ##ch
j ##er
##an ##y
wait ##ed
st ##ud
su ##sp
s ##ight
th ##ick
lou ##d
ex ##cept
kiss ##ed
imp ##ort
##un ##k
##ist ##s
dri ##ve
gr ##ay
##ut ##e
l ##uck
o ##cc
o ##pp
##z ##z
g ##rou
wor ##ked
roll ##ed
minut ##e
##l ##er
s ##al
s ##ad
bene ##ath
d ##est
press ##ed
tr ##ans
point ##ed
##ment ##s
bec ##ome
st ##ro
##m ##ore
##er ##g
##il ##i
joh ##n
shru ##gged
sp ##ot
tell ##ing
##um ##ber
##te ##m
bare ##ly
##idd ##le
cl ##ass
b ##ir
cl ##im
str ##ange
##ain ##s
##l ##ic
##i ##en
he ##y
le ##g
##b ##s
somet ##imes
chr ##ist
con ##cer
an ##n
##p ##id
m ##er
des ##k
child ##ren
w ##ife
tong ##ue
set ##t
wonder ##ed
empt ##y
rem ##ind
p ##ick
or ##der
fig ##ure
surpr ##ised
answ ##ered
che ##ek
##ol ##og
##rie ##f
##ig ##n
##i ##ent
immedi ##ately
po ##ck
b ##all
sl ##id
coff ##ee
proble ##m
sm ##o
##u ##se
know ##s
com ##fort
l ##ed
##s ##ed
##it ##ies
##umb ##led
##u ##ff
sp ##r
d ##uring
m ##iddle
##h ##a
b ##ill
##ic ##king
##am ##ed
cover ##ed
or ##d
e ##arth
heav ##y
##or ##ies
ch ##anged
disapp ##ear
appear ##ed
ter ##ri
##ter ##n
stu ##pid
st ##ri
##th ##ough
##sel ##ves
crow ##d
##s ##ing
st ##one
##ad ##ed
##ic ##es
doub ##t
s ##ir
##l ##s
b ##ath
al ##though
f ##u
p ##ack
so ##l
l ##ady
no ##se
##or ##row
p ##an
month ##s
we ##aring
e ##r
convers ##ation
d ##ied
a ##ff
##anc ##es
cal ##m
pull ##ing
inf ##orm
how ##ever
ar ##t
f ##le
##en ##e
any ##more
m ##ain
v ##ict
sim ##ply
##h ##ow
li ##ked
her ##s
##o ##d
step ##s
n ##umber
gen ##er
lo ##c
f ##air
m ##ed
e ##ight
l ##im
r ##ound
t ##all
th ##row
fin ##ished
che ##ck
r ##ing
sound ##ed
##d ##u
l ##aw
slight ##ly
h ##ed
- ##-
kne ##es
w ##ish
c ##ell
##m ##b
bec ##ame
##m ##y
##sp ##e
##aught ##er
b ##le
##ci ##ally
al ##ive
n ##one
pap ##er
att ##ack
l ##it
re ##le
head ##ed
##b ##ered
##it ##ing
t ##ast
c ##ool
soft ##ly
f ##ift
l ##ord
##v ##in
grou ##p
for ##ce
import ##ant
sp ##ace
sa ##nd
u ##r
mus ##c
dire ##ction
c ##op
sp ##ent
bed ##room
des ##p
##as ##k
##c ##ing
##is ##ion
##y ##l
sound ##s
f ##ly
##ive ##ly
##it ##al
h ##us
##ct ##or
a ##dded
##itt ##ed
##sh ##ip
a ##head
##il ##ing
##bb ##ing
d ##en
tom ##orrow
br ##own
din ##ner
##ou ##ght
be ##at
surpr ##ise
so ##ld
##il ##ed
some ##how
we ##eks
for ##get
m ##ount
want ##s
re ##ach
pro ##f
n ##ick
##or ##k
b ##oo
reco ##gn
cra ##zy
wor ##se
t ##iny
tou ##ched
c ##ast
quiet ##ly
r ##id
trou ##ble
some ##where
d ##rew
th ##reat
on ##es
ac ##cept
li ##e
e ##spe
hes ##it
pol ##ice
j ##en
bro ##ken
foll ##ow
to ##ne
sing ##le
p ##en
g ##ently
des ##er
##e ##z
sw ##all
##ter ##ing
su ##mm
gl ##ad
##ne ##y
bro ##ke
espe ##cially
##b ##and
second ##s
ear ##l
h ##un
wra ##pped
w ##ild
##ail ##s
kid ##s
dark ##ness
st ##ate
##v ##ous
r ##ich
wor ##ried
be ##y
remem ##bered
st ##airs
comm ##and
dem ##and
s ##ick
##or ##ing
he ##at
are ##a
##oo ##f
##m ##e
door ##s
##ite ##ly
we ##ap
bey ##ond
##ac ##hing
v ##an
sil ##ent
pre ##p
m ##ill
pr ##act
we ##ak
to ##w
man ##aged
me ##l
v ##iew
quest ##ions
f ##av
pa ##used
th ##rew
mr ##s
sit ##u
ang ##er
me ##ans
pl ##aced
sp ##l
##est ##ed
s ##igh
wall ##s
i ##ve
as ##h
hu ##ge
##ar ##a
tre ##es
b ##att
off ##ic
inform ##ation
mag ##ic
d ##aughter
sc ##r
see ##ms
c ##ab
stre ##t
##i ##or
c ##as
st ##are
##gg ##ing
li ##p
su ##gg
exp ##ected
v ##al
g ##ame
##ag ##es
##e ##y
dist ##ance
m ##ention
com ##es
ang ##ry
got ##ten
##re ##ed
sh ##aking
##is ##ing
w ##ound
##s ##y
##os ##p
ser ##ious
meet ##ing
##a ##el
b ##rief
##ib ##ly
t ##ree
new ##s
##n ##s
l ##ying
g ##e
cat ##ch
shar ##p
##in ##ing
##u ##es
##tem ##pt
sp ##read
##c ##ious
pie ##ce
list ##en
pock ##et
se ##lf
##in ##ation
##o ##ss
w ##ed
ev ##ent
##ain ##t
r ##y
ear ##ly
part ##y
##v ##ent
b ##ull
pri ##v
pos ##ition
car ##ry
##i ##pp
j ##aw
##s ##and
p ##ath
##g ##r
mat ##t
d ##av
sh ##ip
smil ##ing
d ##ar
##f ##er
g ##ather
##ig ##g
w ##et
ar ##g
sl ##am
wa ##ist
ch ##uck
##a ##le
##ort ##ed
re ##act
t ##ired
g ##ent
for ##ced
##ap ##ed
##al ##ing
prom ##ise
en ##c
h ##ide
##es ##h
bott ##om
def ##in
dra ##g
ser ##v
##ic ##s
r ##ain
##ic ##a
mur ##m
eye ##b
resp ##ond
f ##uck
clear ##ly
lu ##c
thou ##sand
bl ##ank
ag ##reed
sur ##round
to ##t
co ##nd
stru ##gg
to ##ss
b ##al
rel ##ax
des ##per
##er ##m
ner ##vous
hus ##band
an ##im
sa ##ve
e ##ll
##at ##s
##k ##y
con ##st
sn ##apped
of ##ten
kn ##o
f ##ut
##ili ##ar
p ##un
ch ##in
gr ##ace
b ##other
keep ##ing
bel ##ow
##nd ##ed
m ##is
##ver ##ed
h ##ate
cho ##ice
##ect ##ion
sur ##v
fur ##ther
##om ##ing
##an ##a
su ##it
whe ##ther
be ##ll
st ##ar
lo ##ck
ma ##x
th ##in
an ##t
t ##akes
wor ##th
bo ##ys
play ##ing
##rie ##nd
##o ##ld
tr ##uck
##i ##pping
m ##ass
pleas ##ure
v ##i
sil ##ver
earl ##ier
us ##ing
o ##dd
stre ##ng
part ##ic
at ##tempt
p ##u
inc ##l
am ##az
##en ##a
bath ##room
sl ##ipped
grin ##ned
obv ##iously
lo ##cked
sw ##ord
norm ##al
p ##ound
dem ##on
##im ##ed
light ##s
even ##ing
rep ##e
se ##nd
te ##am
e ##ars
let ##ting
d ##ry
situ ##ation
re ##qu
cross ##ed
v ##er
##id ##ence
hon ##est
##a ##ked
sh ##all
arri ##ved
as ##king
##en ##g
li ##ved
em ##b
##o ##int
i ##ce
bo ##d
eyeb ##row
jump ##ed
app ##arent
b ##ow
do ##g
e ##th
hand ##ed
apart ##ment
c ##oo
dress ##ed
wo ##lf
inv ##ol
frown ##ed
c ##amp
expl ##ain
ang ##el
m ##id
w ##ip
fo ##ld
d ##im
care ##fully
cent ##er
hop ##ing
mut ##tered
l ##ap
che ##eks
r ##ad
##tend ##ed
##anc ##ing
##is ##hing
ass ##um
cont ##act
sh ##owed
##s ##et
real ##ize
sp ##ir
##ot ##e
hop ##ed
mus ##ic
j ##ames
breat ##hing
she ##d
certain ##ly
##ort ##h
u ##nd
b ##and
fl ##at
##et ##y
laugh ##ing
j ##ake
gl ##ance
##ch ##o
gent ##le
lo ##se
##f ##ied
them ##selves
we ##ight
tr ##ack
ag ##ree
streng ##th
imag ##ine
pict ##ure
sou ##l
##ust ##ed
##us ##ing
##ag ##er
gre ##w
c ##up
##at ##ive
whis ##per
##au ##lt
##ct ##ed
##d ##ing
##in ##c
br ##ain
su ##per
j ##on
fav ##or
p ##air
##o ##c
not ##ice
o ##l
w ##ore
f ##ix
li ##ves
##er ##a
n ##or
desp ##ite
##an ##ed
qu ##een
sn ##ow
##y ##le
c ##ass
do ##ctor
##ow ##ers
cl ##ou
sc ##ared
sho ##ot
defin ##itely
##k ##es
cap ##tain
f ##ail
h ##osp
off ##ered
t ##un
vis ##it
a ##h
f ##ield
us ##ually
##re ##en
fam ##iliar
begin ##ning
tal ##ked
col ##or
char ##l
en ##erg
fut ##ure
c ##and
##j ##a
m ##ich
bes ##ides
a ##ge
hand ##le
fir ##m
##au ##l
av ##o
l ##ower
##p ##ing
##ell ##e
b ##ase
r ##iver
##or ##ge
dis ##c
dis ##co
m ##otion
eas ##ily
spe ##cial
w ##id
we ##l
fore ##head
batt ##le
en ##tered
shout ##ed
aw ##are
help ##ed
app ##re
##z ##en
j ##ud
mem ##ory
thir ##ty
le ##vel
ke ##y
fight ##ing
kn ##ife
g ##est
all ##owed
fore ##ver
stay ##ed
##idd ##en
d ##on
rem ##ained
m ##al
met ##al
##g ##o
##ur ##al
p ##ot
p ##op
su ##ff
it ##self
p ##ill
t ##est
coun ##ter
cr ##ack
rel ##ation
would ##nt
eth ##an
t ##ar
sim ##ple
tr ##u
fre ##sh
ne ##ither
j ##am
danger ##ous
##ri ##an
mo ##on
need ##s
am ##ong
sho ##ck
sc ##ar
##as ##ing
ph ##ot
##if ##ic
##i ##el
after ##no
h ##en
fo ##cus
hor ##se
vampire ##s
dav ##id
r ##ac
o ##w
c ##ried
##r ##ight
p ##ush
sc ##ent
miss ##ed
p ##ub
e ##qu
sur ##f
##in ##ked
l ##ad
as ##ide
ph ##ys
eff ##ort
re ##ve
##ir ##d
get ##s
comp ##any
p ##in
fl ##esh
##is ##es
##ress ##ed
fr ##o
sque ##ez
diff ##ic
hosp ##ital
pa ##le
not ##e
b ##at
dest ##ro
st ##ick
will ##ing
##c ##ome
##in ##ct
g ##h
fall ##ing
shad ##ow
##ri ##g
pro ##per
swe ##at
energ ##y
cour ##t
old ##er
ad ##am
##g ##es
##iz ##ing
un ##e
dro ##p
afterno ##on
##ay ##ed
je ##ans
person ##al
pres ##ent
bl ##ond
##us ##ion
bur ##st
se ##ven
p ##ark
mar ##ried
em ##otion
des ##ire
expl ##ained
##ri ##es
as ##ks
##l ##in
m ##aster
foll ##owing
fre ##y
##id ##ge
k ##at
g ##on
f ##a
p ##ort
h ##ated
want ##ing
##ess ##ion
h ##at
m ##ike
##op ##e
##r ##it
moment ##s
t ##reat
p ##our
f ##it
g ##ab
st ##ore
lear ##ned
put ##ting
cou ##ch
##pp ##er
sp ##o
##ac ##y
apparent ##ly
##r ##ation
##on ##ed
f ##il
l ##ab
d ##om
im ##m
##ol ##ute
sh ##ower
##ur ##ity
##ver ##n
rel ##ief
partic ##ular
dis ##cus
spe ##ed
wonder ##ing
dro ##ve
n ##ar
sh ##ake
go ##es
ind ##e
open ##ing
turn ##s
##st ##airs
m ##ot
sett ##led
de ##ar
h ##ol
he ##al
th ##igh
no ##ise
st ##uck
like ##ly
hang ##ing
##as ##hing
bus ##y
thir ##d
c ##u
pro ##v
##i ##ves
underst ##ood
hu ##nt
boo ##ks
gr ##im
##st ##on
##u ##g
sc ##reen
esc ##ape
car ##ried
##i ##ved
start ##ing
wind ##ows
call ##ing
j ##ason
r ##ide
h ##ill
d ##ate
p ##ant
scream ##ed
##am ##b
r ##h
b ##ent
f ##ool
h ##ips
disappear ##ed
t ##a
ma ##j
vi ##ol
##c ##her
##i ##ers
bott ##le
fig ##ured
mich ##ael
there ##s
po ##or
##c ##l
end ##ed
det ##erm
power ##ful
te ##le
shift ##ed
ro ##b
##ul ##ous
a ##ri
hun ##ter
##ast ##ic
mar ##y
stu ##dy
gri ##p
##nd ##s
ob ##s
un ##less
imp ##oss
he ##a
for ##t
##il ##s
##as ##m
miss ##ing
mir ##ror
##er ##t
abs ##olute
##l ##ine
we ##ar
happ ##ening
##o ##b
w ##ake
bod ##ies
re ##ce
d ##ust
murm ##ured
e ##cho
care ##ful
j ##os
##on ##se
let ##s
hall ##way
h ##y
summ ##er
spe ##aking
lear ##n
sec ##urity
p ##ants
off ##er
event ##ually
tast ##e
bel ##ong
p ##ink
comp ##ut
##v ##al
z ##ane
pe ##ace
his ##t
d ##ance
##ut ##ion
guard ##s
tru ##ly
fl ##ash
fore ##st
rac ##hel
b ##ast
cl ##en
##et ##t
frey ##ja
diffic ##ult
count ##ry
tw ##isted
d ##ru
##ad ##ing
hard ##er
##itt ##en
##m ##en
sh ##are
##o ##ved
hum ##ans
se ##a
cl ##ub
e ##st
sleep ##ing
ent ##r
th ##umb
##a ##ff
p ##ul
##s ##es
##st ##em
relation ##ship
m ##ort
your ##s
we ##ird
t ##ens
pet ##er
##i ##ans
i ##v
st ##orm
sh ##iver
j ##ess
hor ##ri
pro ##p
yell ##ed
d ##ig
sm ##oke
gi ##ft
unc ##le
sat ##is
no ##d
luck ##y
##ber ##t
j ##es
##in ##ting
bl ##ind
does ##nt
le ##ather
p ##ushing
resp ##onse
un ##f
inter ##rupt
la ##id
sy ##stem
c ##ard
swall ##owed
a ##unt
##le ##ep
gra ##b
l ##y
us ##ual
pal ##m
gr ##owing
st ##ation
way ##s
##r ##ing
adm ##it
spe ##nd
sa ##v
comp ##l
mess ##age
as ##leep
pl ##aces
##at ##tered
en ##em
##m ##iss
##at ##ic
en ##ter
##p ##ar
she ##s
##l ##ike
consid ##ered
do ##ll
##re ##nt
pur ##p
read ##ing
tri ##p
smo ##oth
be ##th
##ill ##ed
##ump ##ed
so ##f
##un ##ity
##ath ##an
##ott ##en
find ##ing
had ##nt
##or ##ds
eff ##ect
##led ##ge
##and ##a
r ##ough
mo ##v
w ##ine
##b ##all
ser ##iously
r ##om
fun ##ny
th ##om
burn ##ing
l ##ang
bl ##inked
lean ##ing
wa ##ved
po ##st
mil ##es
conf ##used
obv ##ious
##ac ##her
##ar ##m
cra ##w
fr ##ank
burn ##ed
ho ##le
hot ##el
feel ##ings
##re ##s
am ##er
dist ##ract
##r ##id
b ##as
is ##land
pres ##ence
##if ##ied
bir ##th
l ##eng
v ##ill
sar ##ah
so ##ph
##i ##us
w ##it
any ##where
dri ##ft
priv ##ate
fin ##al
##arr ##ass
n ##orth
##bb ##y
##r ##on
emb ##arrass
u ##t
remind ##ed
##c ##ri
appre ##ci
consid ##er
vict ##or
em ##p
c ##ause
de ##fe
##i ##ot
em ##ma
l ##unch
sh ##op
ref ##le
for ##th
enjo ##y
mur ##der
shad ##ows
h ##idden
list ##ening
cor ##re
be ##ar
p ##iss
v ##ar
p ##aul
imposs ##ible
r ##ub
##om ##b
##i ##am
supp ##ose
vis ##ion
##ic ##ious
r ##ap
##r ##ated
ele ##ct
cab ##in
bl ##ock
u ##h
m ##art
f ##aint
fr ##ust
direct ##ly
a ##id
pr ##ison
fall ##en
s ##ong
##rou ##d
belie ##ved
what ##s
p ##ier
feel ##s
##ck ##s
##c ##il
##en ##cy
m ##ach
b ##ite
sho ##es
m ##ere
ar ##r
all ##ow
incl ##ud
ne ##cess
sho ##ved
g ##ard
##ur ##ch
nar ##row
##and ##er
surf ##ace
##oun ##ced
j ##u
##ly ##n
coll ##e
door ##way
set ##h
te ##xt
##in ##al
opp ##os
dis ##g
##p ##ort
w ##est
m ##ic
jack ##et
demand ##ed
ev ##il
su ##cc
con ##v
a ##ut
tr ##ick
##ur ##y
w ##ont
ma ##le
entr ##ance
gr ##ass
s ##ides
leng ##th
v ##ol
rep ##ort
exper ##ience
resp ##ect
##o ##le
##or ##med
ext ##ra
repe ##ated
clim ##bed
a ##ud
sp ##ell
p ##or
ru ##bbed
##it ##ive
fin ##ish
f ##aces
##g ##ar
cap ##t
war ##ri
circ ##le
el ##b
n ##umb
cry ##ing
wa ##ve
f ##ought
mem ##ories
##y ##er
loo ##se
appro ##ached
jo ##in
play ##ed
w ##ished
amaz ##ing
dri ##ving
##a ##ur
m ##ac
f ##aster
##oo ##se
##less ##ly
breat ##he
gh ##ost
tot ##ally
co ##le
no ##body
cl ##ut
##n ##ers
m ##ent
whe ##el
re ##aching
b ##uck
co ##at
##ing ##ing
j ##im
##ad ##es
slam ##med
war ##ning
##ri ##age
n ##ic
low ##ered
r ##oof
inv ##est
lau ##ght
fe ##ed
i ##an
##as ##ion
bo ##ard
p ##it
##a ##i
invol ##ved
toss ##ed
he ##aring
hard ##ly
tra ##il
st ##iff
musc ##les
##om ##fort
laught ##er
bra ##nd
be ##er
cl ##ock
f ##ist
##b ##ing
comput ##er
in ##no
ce ##iling
ap ##olog
##f ##ast
ch ##ang
l ##ung
na ##ked
##c ##ul
thr ##ust
un ##able
cle ##ared
te ##ch
##id ##s
sn ##e
##h ##ood
is ##s
perfect ##ly
##he ##t
##m ##er
ch ##ase
fl ##ick
s ##outh
s ##ize
wr ##ist
cr ##u
head ##s
poss ##ibly
t ##ip
che ##cked
##u ##ct
ch ##urch
##iss ##a
most ##ly
r ##ush
b ##ound
interest ##ed
n ##ur
contin ##ue
##y ##al
##u ##dd
sm ##art
pro ##cess
tre ##mb
yell ##ow
kill ##ing
ex ##ist
##te ##en
ex ##ha
r ##ul
im ##age
l ##at
bit ##ch
bu ##y
ord ##ered
gas ##ped
acc ##om
re ##v
sub ##ject
h ##iding
gener ##al
k ##icked
supp ##ort
##el ##ess
weap ##on
tw ##ice
d ##ir
##bo ##ard
resp ##ons
fo ##c
brother ##s
b ##orn
n ##ine
head ##ing
dec ##ision
sp ##ark
forg ##otten
##a ##ld
o ##pt
g ##ate
inst ##antly
co ##ck
f ##ully
bl ##ow
h ##i
inc ##red
arm ##y
be ##ast
pre ##tend
##iz ##z
hen ##ry
##w ##ise
ir ##on
n ##arr
sw ##ung
g ##igg
purp ##ose
but ##ton
t ##ab
att ##ract
e ##ric
reg ##ret
pan ##ic
##ra ##ge
##ib ##ility
squeez ##ed
br ##ushed
fe ##at
foc ##used
gr ##as
ris ##k
prom ##ised
##w ##ell
lo ##gan
an ##no
dri ##ver
g ##ut
comfort ##able
bl ##o
terri ##ble
##ant ##ed
di ##v
m ##ood
break ##fast
ign ##ored
##d ##en
##n ##el
##ma ##le
sim ##on
thom ##as
am ##b
sold ##iers
st ##ream
pa ##id
fe ##male
##ent ##ed
##ess ##ed
pub ##lic
fr ##ight
f ##at
cla ##ire
p ##roud
hist ##ory
fle ##w
lu ##ci
jo ##e
##i ##um
##e ##ke
##l ##ish
sugg ##est
concer ##ned
fly ##ing
j ##our
lu ##ke
ne ##igh
bl ##ade
##in ##n
##am ##ing
stru ##ck
wel ##come
up ##set
##ro ##ll
sc ##ene
##w ##h
n ##on
ris ##ing
l ##ines
##ag ##ue
hell ##o
un ##iver
f ##ault
p ##ool
go ##ds
bl ##ur
sure ##ly
neigh ##b
t ##il
r ##ushed
be ##ach
exc ##ited
wor ##st
dan ##iel
pie ##ces
pro ##du
absolute ##ly
in ##j
wood ##s
se ##par
##id ##ay
blood ##y
##er ##n
##* ##*
stret ##ched
bo ##at
wed ##ding
com ##b
sc ##ra
par ##king
cur ##rent
tight ##ly
h ##oney
gre ##y
disapp ##oint
oppos ##ite
bo ##ots
wood ##en
co ##st
pl ##ate
##re ##st
##b ##ers
jer ##ked
bu ##ilt
exc ##use
sear ##ch
qu ##ar
k ##ick
p ##ad
##an ##na
r ##um
ele ##v
lea ##ves
cl ##aw
bre ##aking
bre ##ast
inde ##ed
##om ##ed
inst ##inct
##r ##al
sa ##f
##ep ##s
scream ##ing
jo ##ined
##int ##ed
ste ##ady
ey ##ed
ty ##pe
dream ##s
har ##m
e ##ating
jo ##y
tr ##ain
p ##sy
kiss ##ing
r ##ang
l ##ake
m ##as
##ot ##ions
mag ##n
back ##ward
##ann ##ah
##he ##n
pl ##ans
d ##ut
hu ##h
des ##cri
##al ##k
t ##ick
sh ##a
##u ##it
##am ##a
y ##a
sw ##ear
##s ##ion
id ##ent
move ##ment
cur ##led
k ##ate
fu ##cking
##w ##ork
f ##aced
con ##cent
interest ##ing
del ##iver
spir ##it
stud ##ied
b ##ones
tou ##ching
##ag ##ged
##il ##ar
gold ##en
un ##b
bro ##ad
sc ##an
d ##irt
hung ##ry
em ##otions
##g ##round
##h ##ouse
eng ##ine
kn ##ock
happ ##ens
yes ##ter
##ill ##y
br ##ow
sle ##pt
##o ##v
ex ##am
creat ##ure
eas ##ier
##un ##e
yester ##day
gre ##et
reg ##ard
k ##en
t ##ent
f ##ren
##all ##en
prep ##ared
react ##ion
rele ##ased
acc ##ident
##ro ##du
b ##an
r ##and
sh ##ape
know ##ledge
##i ##as
lo ##sing
dec ##l
fl ##ight
##is ##to
ca ##used
op ##er
narr ##owed
sh ##udd
##ens ##ive
gu ##est
who ##se
fl ##ashed
deep ##er
mist ##ake
go ##dd
concer ##n
list ##ened
##is ##m
##anc ##y
h ##ig
##are ##t
grow ##led
an ##x
s ##our
tra ##ve
jos ##h
##ect ##ive
m ##ix
##0 ##0
s ##ink
##c ##ol
pr ##ince
is ##nt
sc ##rew
squ ##are
dec ##ide
kne ##e
a ##uth
##a ##ly
jam ##ie
b ##ree
pre ##fer
tra ##vel
##ile ##y
ry ##an
##un ##ately
think ##s
stay ##ing
sh ##ield
but ##t
ar ##ch
##ce ##ed
fift ##een
opp ##ort
st ##un
d ##ying
k ##ell
th ##or
f ##er
hesit ##ated
wo ##ke
favor ##ite
sear ##ching
ste ##el
##u ##nder
ob ##ject
clen ##ched
smil ##es
pr ##ay
anim ##al
she ##l
go ##vern
bo ##ss
tight ##ened
##u ##ing
w ##ings
##um ##e
c ##rew
sho ##cked
weap ##ons
dir ##ty
in ##ch
t ##an
land ##ed
v ##ir
scr ##at
occ ##asion
##ic ##le
rem ##oved
sp ##un
colle ##ge
eyebrow ##s
dou ##ble
will ##iam
el ##iz
entire ##ly
ref ##used
unc ##omfort
hur ##ry
te ##a
c ##y
chuck ##led
wonder ##ful
carry ##ing
##vel ##op
hu ##g
avo ##id
gr ##own
##m ##as
bast ##ard
near ##by
dr ##unk
##f ##riend
aw ##k
plan ##ned
sh ##owing
awk ##ward
##it ##ude
##umb ##ling
h ##ors
obs ##er
bring ##ing
recogn ##ized
##ar ##ily
inst ##ant
kno ##cked
o ##rig
every ##where
breat ##hed
rep ##ly
un ##s
sh ##ared
sol ##id
s ##an
sugg ##ested
adm ##itted
d ##un
ind ##ic
##i ##ally
sa ##ved
r ##ow
charl ##ie
gi ##ves
desper ##ate
they ##re
##im ##p
##nd ##ay
jul ##ian
gather ##ed
mount ##ain
##g ##ie
c ##ook
d ##are
warm ##th
sm ##ir
##ig ##ned
y ##an
c ##ow
maj ##or
be ##lly
clos ##ing
com ##ment
##as ##y
answ ##ers
##ant ##ic
other ##wise
b ##ought
##p ##or
m ##c
an ##ci
se ##nding
1 ##9
pre ##gn
su ##cked
##ous ##ly
con ##vin
dep ##art
st ##ories
br ##idge
gi ##ant
sex ##y
deep ##ly
boy ##friend
hur ##ried
rest ##aur
cla ##im
rec ##ord
bur ##ied
hea ##ven
call ##s
st ##aff
gro ##aned
li ##br
p ##ure
em ##ily
tech ##n
li ##z
inst ##ru
car ##s
st ##age
ple ##ased
##ke ##y
u ##m
te ##ar
r ##are
sil ##ently
mean ##ing
beaut ##y
pict ##ures
t ##our
roll ##ing
##i ##que
un ##fort
help ##ing
aw ##ake
invest ##ig
je ##ff
dra ##gged
st ##ab
st ##ir
##el ##ed
gl ##ow
##es ##e
mar ##ry
ch ##allen
drag ##on
bel ##t
auth ##or
real ##ity
br ##u
##re ##l
##ur ##a
c ##ust
s ##ac
##re ##me
ex ##ch
comm ##on
succ ##ess
pr ##in
fift ##y
de ##ck
ad ##j
surround ##ed
f ##aded
sp ##in
dra ##wn
let ##ter
st ##at
e ##ld
ho ##st
f ##al
##ag ##g
n ##ames
de ##b
in ##sp
##st ##r
necess ##ary
e ##ager
no ##ah
##ep ##ing
imag ##ined
rel ##ie
ho ##ll
tr ##aining
g ##le
t ##ur
wor ##ks
int ##ense
j ##ac
pull ##s
##og ##ra
l ##ing
##c ##ase
##it ##or
am ##ount
##d ##ed
##ation ##al
act ##ion
pre ##c
li ##ly
loc ##al
p ##ause
##ic ##an
##um ##ent
serv ##ice
rem ##ain
##en ##ces
fold ##ed
##n ##es
r ##age
lead ##ing
lang ##u
determ ##ined
##n ##ie
char ##ge
c ##ig
l ##ack
glass ##es
b ##ank
dis ##pl
wip ##ed
exc ##ite
m ##ate
you ##ve
##i ##os
##r ##ick
gr ##ate
##d ##om
su ##s
r ##en
nat ##ure
anci ##ent
int ##rodu
draw ##ing
gab ##ri
dr ##inking
hors ##es
le ##ap
##b ##it
offic ##er
tor ##t
sl ##iding
po ##inting
##as ##hes
occ ##ur
##us ##s
st ##ars
mov ##ie
g ##all
ca ##le
expect ##ing
mention ##ed
rich ##ard
consid ##ering
pass ##ing
##as ##ons
ch ##at
bet ##r
young ##er
nat ##ural
disco ##vered
ch ##ick
wa ##ves
mo ##d
sl ##ip
vo ##ices
pl ##enty
opport ##unity
r ##ise
##u ##c
ab ##and
cur ##ious
w ##itch
##th ##y
##ll ##ed
stre ##ets
room ##s
he ##els
##w ##ood
gl ##ared
do ##zen
rec ##all
f ##ab
excite ##ment
det ##ails
h ##om
hor ##ror
cra ##p
dom ##in
j ##ared
phys ##ical
##it ##ary
r ##out
int ##im
gard ##en
b ##ul
proble ##ms
ol ##iv
ass ##ist
c ##ave
light ##ly
bl ##ame
d ##art
je ##w
w ##and
r ##ay
press ##ure
wr ##itten
##m ##p
cl ##o
##im ##ent
##ac ##hes
lo ##ss
throw ##ing
bad ##ly
res ##ist
mem ##bers
##t ##he
li ##f
relax ##ed
enem ##y
##h ##am
##g ##u
##oo ##ked
##ic ##ulous
se ##b
b ##ry
ke ##ys
##ag ##ger
h ##ous
gr ##unt
inc ##re
k ##yl
saf ##ety
exper ##ien
ign ##ore
christ ##mas
##et ##te
set ##ting
strong ##er
y ##ork
gl ##o
mat ##ch
bl ##ast
sp ##ar
pre ##v
##g ##ress
an ##k
t ##ied
cass ##ie
da ##wn
corre ##ct
ho ##ly
##al ##ous
t ##ail
acc ##ount
ord ##ers
##ars ##h
f ##ol
blank ##et
##e ##nd
interrupt ##ed
kiss ##es
rest ##ed
f ##ac
tar ##get
luc ##as
we ##eke
ve ##h
##il ##ities
##t ##le
piss ##ed
##y ##e
##ill ##e
wit ##ness
tw ##el
ab ##ility
t ##v
in ##h
##ot ##ed
w ##is
##k ##er
christ ##ian
##lf ##riend
feat ##ures
gu ##ilt
j ##an
thigh ##s
gir ##lfriend
tem ##per
##t ##s
gre ##g
seb ##ast
fail ##ed
psy ##ch
sw ##ept
conf ##ir
ob ##l
elev ##ator
cor ##rid
pr ##ed
an ##na
bec ##oming
kyl ##ie
coun ##cil
oliv ##ia
##ell ##a
jes ##us
hon ##or
e ##dd
un ##like
ter ##ror
##it ##ched
pl ##ane
##ab ##eth
##c ##an
now ##here
sk ##ill
comm ##un
press ##ing
tu ##cked
f ##ish
eng ##lish
h ##int
inter ##n
sle ##e
ge ##orge
mill ##ion
##er ##ial
bit ##ter
or ##gan
n ##amed
sk ##irt
fl ##ames
se ##ll
ev ##idence
for ##ty
man ##age
do ##c
##f ##ather
sil ##k
rele ##ase
##i ##ant
firm ##ly
pour ##ed
miss ##ion
smell ##ed
sebast ##ian
por ##ch
ab ##rupt
over ##w
sc ##ow
ch ##a
##ant ##e
you ##ll
s ##ed
b ##on
s ##en
##ack ##s
includ ##ing
##e ##v
tw ##ist
restaur ##ant
ir ##rit
big ##ger
pro ##ve
ch ##ill
un ##w
respond ##ed
t ##ang
re ##b
e ##ast
##is ##ters
##ur ##ies
f ##ant
** ##*
##ic ##ate
c ##ash
f ##art
res ##ult
##ire ##s
##el ##ing
start ##s
##ag ##ing
fl ##owers
n ##ate
p ##ace
comp ##an
##ver ##y
##ol ##ves
bl ##ake
car ##ed
##m ##in
hig ##her
strugg ##led
plan ##ning
##ne ##ath
win ##ter
vill ##age
mass ##ive
##ro ##g
c ##ous
##act ##ion
##m ##other
twel ##ve
ph ##il
##o ##e
pro ##ject
up ##stairs
b ##acked
spo ##ken
iv ##y
is ##ab
lo ##g
ex ##h
##he ##w
love ##ly
sim ##ilar
f ##acing
dis ##p
v ##ib
fren ##ch
##us ##es
gr ##ad
differ ##ence
ro ##bert
j ##ane
gri ##pped
wid ##ened
p ##age
##ll ##a
to ##ny
r ##ipped
mar ##riage
bu ##zz
f ##ed
plan ##et
##n ##n
c ##ream
mat ##erial
when ##ever
r ##ick
ext ##reme
##ro ##p
pap ##ers
par ##ked
##id ##er
b ##ay
pass ##ion
uncomfort ##able
##m ##it
##ic ##ip
wh ##om
car ##p
je ##alous
k ##ar
dem ##ons
cast ##le
fl ##ood
night ##m
o ##ce
##at ##ure
##se ##y
sw ##im
sn ##ar
li ##am
rid ##iculous
mach ##ine
##ict ##ion
##ain ##e
pur ##se
p ##owers
re ##asons
brief ##ly
eliz ##abeth
we ##ather
v ##ac
under ##neath
tens ##ion
ins ##isted
p ##il
##am ##ber
li ##qu
enjo ##yed
ch ##oose
sl ##ide
pract ##ically
relie ##ved
r ##ace
mon ##ster
pl ##ain
surv ##ive
night ##s
start ##led
g ##orge
c ##el
##in ##ary
satis ##f
##c ##on
heav ##ily
pl ##astic
le ##x
prin ##cess
##iz ##ation
part ##s
tre ##nt
hands ##ome
sn ##iff
kn ##ight
conf ##usion
sto ##pping
d ##ancing
##iv ##al
chr ##is
cry ##st
libr ##ary
ant ##icip
##ic ##ing
f ##ang
ur ##ge
prof ##ess
t ##ed
##is ##a
f ##ier
ble ##w
e ##ve
em ##er
c ##art
war ##ned
cam ##era
p ##ip
##l ##ies
j ##ace
st ##air
wr ##ite
inno ##cent
t ##it
##z ##ed
tun ##nel
ha ##mm
gun ##s
##ct ##ions
w ##ow
cons ##cious
##i ##ving
st ##s
##p ##es
nightm ##are
at ##tend
at ##e
mere ##ly
##ver ##ing
rul ##es
##dd ##ing
conn ##ection
##i ##est
g ##er
ne ##g
gra ##ve
rad ##io
be ##ck
lead ##er
br ##ush
clou ##d
p ##icking
fa ##ith
forg ##ot
m ##s
inc ##hes
ble ##ed
u ##pper
##o ##ll
acc ##ord
emp ##lo
v ##en
re ##ar
##_ ##_
ag ##ent
s ##ank
sw ##ir
conn ##or
##i ##ber
##ant ##age
##et ##er
cl ##ay
cam ##er
##i ##ently
em ##br
se ##an
vict ##im
id ##iot
jul ##ia
##idd ##ing
te ##en
spl ##it
b ##er
horri ##ble
w ##ard
##al ##ity
tell ##s
pound ##ing
##to ##p
honest ##ly
t ##att
r ##if
r ##ust
fro ##ze
creat ##ures
norm ##ally
br ##ad
assum ##ed
##ir ##a
te ##acher
thr ##own
re ##ass
int ##ell
fr ##ame
r ##on
add ##ress
wr ##iting
u ##g
y ##ard
##ist ##ic
gl ##ancing
creat ##ed
weeke ##nd
st ##umbled
t ##ess
de ##velop
rel ##uct
##if ##y
##y ##n
no ##ds
far ##m
overw ##hel
##c ##a
##v ##iew
mil ##itary
d ##read
sw ##ift
r ##ail
lot ##s
fl ##ipped
##a ##f
unfort ##unately
##um ##ps
##nd ##on
f ##ash
or ##ange
acc ##ess
understand ##ing
un ##if
su ##ck
rest ##ing
clos ##et
e ##ase
n ##athan
lung ##s
tem ##pt
anim ##als
h ##ood
appreci ##ate
fix ##ed
f ##ists
grate ##ful
destro ##y
convin ##ced
fre ##ed
ut ##ter
##h ##ol
spr ##ing
sp ##ine
stand ##s
pregn ##ant
so ##ot
gra ##bbing
##gr ##am
aw ##ful
che ##er
cig ##aret
##la ##imed
te ##nder
d ##amp
s ##in
some ##body
##k ##i
n ##i
##ac ##le
res ##c
t ##ing
f ##an
##n ##ow
hu ##gged
fur ##y
gl ##are
r ##am
loud ##ly
be ##ating
p ##ile
##g ##est
f ##urn
car ##ol
edd ##ie
ref ##er
##t ##ime
dist ##ant
j ##ay
ev ##ents
tor ##n
str ##ang
tremb ##ling
##ap ##er
m ##ap
##au ##nt
th ##under
##pp ##y
re ##ver
dro ##pping
dad ##dy
j ##ose
wor ##n
b ##one
dam ##ned
grand ##mother
me ##al
cust ##om
surpr ##ising
##b ##ook
sc ##o
##it ##ions
oce ##an
##en ##ger
##f ##or
res ##ear
fier ##ce
bir ##d
ce ##le
act ##iv
t ##aught
del ##ight
fir ##ed
me ##at
n ##ik
w ##er
##dd ##y
tem ##ple
tatt ##oo
recogn ##ize
rap ##id
pain ##ting
##v ##ision
##ent ##ial
f ##ate
he ##ight
fash ##ion
##ist ##an
til ##ted
##i ##ance
amer ##ican
clou ##ds
##e ##ch
##it ##a
pract ##ice
kill ##er
w ##es
accept ##ed
cr ##im
##l ##or
gu ##il
cur ##tain
a ##ck
act ##ing
langu ##age
gorge ##ous
d ##ere
h ##ip
dist ##ur
r ##iley
clot ##hing
c ##ro
build ##ings
dam ##age
c ##ott
ab ##by
elb ##ow
warri ##or
h ##arsh
was ##h
ch ##ain
##r ##ont
##or ##a
du ##g
ru ##bbing
##ers ##on
fro ##zen
cele ##br
tu ##gged
##v ##is
d ##ue
##k ##a
sh ##akes
rock ##s
##ak ##s
mar ##sh
c ##rou
che ##w
##as ##ure
wh ##ir
c ##ad
corrid ##or
str ##anger
cr ##acked
sk ##ull
##m ##o
spot ##ted
##f ##orm
jo ##ke
pri ##est
br ##ick
expl ##od
pl ##us
de ##pe
bree ##ze
sens ##ation
ign ##oring
govern ##ment
##r ##is
t ##ie
al ##i
ch ##ose
fl ##ut
pol ##it
grand ##father
ch ##airs
my ##st
expl ##os
forg ##ive
ass ##ured
ch ##lo
##iv ##id
##in ##ated
frust ##ration
g ##w
tow ##el
susp ##ected
pill ##ow
sear ##ched
dut ##y
was ##te
down ##stairs
prot ##est
##ogra ##ph
cr ##ed
un ##lo
in ##tended
g ##y
pe ##ered
g ##al
d ##ick
##m ##on
sc ##ott
esc ##aped
m ##ia
jud ##ge
birth ##day
ca ##using
small ##er
and ##rew
v ##ers
guil ##ty
who ##ever
pu ##zz
var ##ious
she ##ll
rece ##ived
susp ##ic
stun ##ned
gabri ##el
##ill ##ing
pl ##at
reg ##ular
##e ##c
to ##re
con ##c
desper ##ately
clim ##b
j ##a
sett ##le
char ##ac
dere ##k
secret ##s
##os ##en
m ##ail
bal ##ance
gro ##an
##in ##o
##ash ##a
##ot ##ic
##g ##y
ch ##ief
his ##sed
po ##pped
e ##gg
enjo ##ying
br ##ows
fart ##her
c ##iv
b ##rian
lift ##ing
n ##av
k ##im
sold ##ier
##ph ##one
beg ##un
att ##acked
ch ##amber
v ##el
e ##t
pr ##ide
pal ##ms
ch ##osen
her ##o
lo ##ving
profess ##or
part ##ner
pul ##se
s ##isters
en ##s
bag ##s
am ##y
ste ##pping
susp ##ect
tra ##pped
n ##in
##r ##am
al ##right
lo ##ndon
##ct ##ure
abrupt ##ly
a ##im
foot ##st
disg ##ust
return ##ing
nur ##se
ke ##nd
coll ##aps
k ##al
al ##arm
des ##ce
w ##il
gest ##ure
##amp ##ed
not ##es
sur ##re
wal ##ks
b ##unch
stud ##ents
b ##ri
m ##um
terri ##fied
expl ##an
##r ##ate
ha ##l
cap ##able
vir ##g
##um ##ed
drift ##ed
d ##or
sn ##at
for ##med
yan ##ked
##at ##ors
##ci ##f
s ##ip
care ##ss
lad ##ies
br ##ill
c ##her
cut ##e
##as ##es
land ##ing
chlo ##e
exha ##usted
sar ##a
pain ##ful
musc ##le
w ##on
displ ##ay
r ##ib
pro ##gram
l ##es
sens ##ed
cur ##se
sa ##ke
##k ##in
particular ##ly
une ##x
int ##ent
cover ##ing
perf ##orm
ro ##de
##ath ##y
mount ##ains
l ##ined
ru ##le
r ##ot
were ##w
##he ##art
circ ##um
##it ##ation
##f ##it
##b ##el
hous ##es
ro ##s
chang ##ing
br ##an
cond ##ition
##d ##o
lit ##er
sh ##ame
discus ##s
mo ##an
##us ##hes
bo ##nd
rh ##y
ack ##now
mar ##cus
##olog ##y
lar ##ger
ter ##m
##wh ##at
##ff ##ic
pur ##ple
gl ##owing
under ##w
gaz ##ed
sign ##s
con ##cl
imp ##at
pr ##im
##it ##es
det ##ail
sh ##r
che ##cking
echo ##ed
shoot ##ing
blond ##e
unif ##orm
gr ##ant
g ##age
v ##io
sn ##orted
bl ##az
ar ##row
was ##hed
l ##icked
bull ##et
r ##ip
##h ##ip
##ul ##f
do ##gs
point ##s
li ##ed
gar ##age
ar ##ched
g ##ear
adv ##antage
ann ##ounced
straight ##ened
footst ##eps
in ##it
cho ##col
h ##ast
a ##i
embarrass ##ed
##al ##es
appro ##ach
##a ##pping
cut ##ting
##pt ##ion
finger ##t
van ##ished
enc ##ou
ment ##al
tot ##al
ug ##ly
coll ##ar
m ##ask
soon ##er
conf ##ident
r ##aced
tow ##er
v ##in
##ac ##he
r ##aw
2 ##0
deser ##ve
ra ##ise
##u ##le
##cept ##ion
half ##way
g ##av
sof ##a
##as ##c
ret ##reat
but ##ter
accord ##ing
##u ##ght
##ish ##ment
##w ##alk
tab ##les
bow ##l
cont ##ract
hold ##s
dev ##il
numb ##ers
vio ##let
she ##et
##ump ##ing
##ak ##er
neighb ##or
##v ##or
occ ##up
##z ##ing
##ri ##f
fill ##ing
fr ##ag
mat ##ters
ste ##ve
d ##er
victor ##ia
mor ##gan
t ##ense
li ##es
m ##umbled
sat ##ur
t ##ask
cat ##ching
cale ##b
mo ##ves
conv ##ince
elect ##ric
ex ##it
##ward ##s
through ##out
w ##ink
cle ##aring
all ##ey
intell ##ig
conn ##ected
li ##kes
car ##l
every ##body
pr ##ice
jour ##ney
in ##ner
r ##iding
lau ##ren
lu ##cy
st ##al
al ##co
destro ##yed
ins ##ane
##ic ##o
##iet ##y
##ut ##s
##pl ##ace
ben ##ch
whisp ##ers
ste ##al
rem ##aining
j ##ax
s ##illy
op ##in
mag ##gie
f ##el
##ot ##te
##miss ##ion
or ##g
dr ##own
s ##way
n ##ap
appear ##ance
pay ##ing
j ##ere
de ##g
ha ##vent
v ##ide
bo ##b
ro ##pe
po ##ison
t ##apped
so ##ci
r ##att
te ##x
gest ##ured
##ag ##o
d ##umb
det ##ective
per ##io
ha ##w
grin ##ning
protect ##ion
bill ##y
ser ##ved
sl ##apped
for ##cing
tr ##ace
f ##ile
it ##em
prof ##ession
##v ##et
fright ##ened
g ##ames
cl ##ar
so ##cial
har ##ry
surround ##ing
l ##ust
keep ##s
##ell ##ed
##her ##n
##e ##g
tr ##ay
b ##ang
ball ##s
cous ##in
spe ##ech
##er ##ie
##m ##et
##ak ##y
spe ##cif
imag ##es
e ##p
challen ##ge
fab ##ric
##l ##u
t ##ough
wr ##ote
##h ##an
sh ##ade
##bb ##led
sun ##light
man ##ner
dec ##or
e ##tern
pat ##tern
guess ##ed
pres ##ident
hunt ##ing
##ra ##w
##ing ##er
##on ##a
rec ##ently
arg ##ue
##aw ##k
en ##orm
sens ##es
p ##unch
see ##ming
stri ##ke
l ##ur
st ##yle
pain ##ted
ur ##g
##het ##ic
eas ##ed
coo ##per
##int ##s
d ##ang
unex ##p
sm ##ith
lo ##ves
h ##itting
##b ##ble
pe ##e
##ir ##ing
tr ##istan
sy ##mp
tr ##ained
strugg ##ling
sound ##ing
char ##les
v ##ul
veh ##icle
satis ##fied
dr ##ank
ho ##lly
tra ##ffic
p ##acked
ne ##at
##oo ##p
exc ##laimed
aff ##ord
shar ##ply
t ##am
l ##one
our ##selves
unexp ##ected
##p ##her
sour ##ce
experien ##ced
ha ##y
din ##ing
requ ##est
##ad ##s
n ##et
ha ##ul
##e ##ze
de ##an
dis ##miss
##ons ##cious
##k ##n
cryst ##al
sc ##hed
mem ##ber
aut ##om
dru ##g
circum ##st
chocol ##ate
stro ##ked
##r ##an
liqu ##id
cop ##y
drive ##way
friend ##ly
col ##ored
ca ##ut
##at ##ically
fl ##in
occur ##red
v ##ague
cop ##s
##ask ##et
close ##ly
##ord ##an
fell ##ow
ha ##unt
##ag ##on
gas ##p
##un ##ched
m ##ult
##ur ##s
s ##id
jon ##athan
imp ##ress
arr ##ange
let ##ters
##o ##y
we ##ve
in ##qu
wra ##p
lou ##der
gr ##an
remember ##ing
##ce ##ll
cl ##iff
cur ##sed
explan ##ation
enc ##oun
pat ##ted
was ##hing
some ##what
scr ##amb
##a ##it
h ##mm
un ##h
ale ##c
repl ##aced
con ##ce
##em ##on
pal ##ace
bl ##ink
bother ##ed
to ##es
##im ##m
##d ##on
state ##ment
s ##ke
they ##d
pur ##s
sn ##ap
##oun ##ce
light ##ning
##yl ##an
ac ##qu
resear ##ch
inv ##is
t ##ap
##st ##and
w ##ren
conn ##ect
assum ##e
sl ##owed
ro ##yal
loc ##ation
poss ##ess
cl ##oth
d ##ull
doll ##ars
sh ##ore
bre ##ad
##rou ##s
##ri ##b
fl ##u
cas ##ual
##ather ##ine
des ##ign
se ##ction
poss ##ibility
e ##re
cr ##ime
ser ##ies
##ru ##ction
##i ##ents
beh ##av
exist ##ence
##c ##ies
f ##asc
##ri ##ff
ra ##ven
dan ##ny
gar ##ion
wh ##ist
charl ##otte
res ##er
no ##dding
int ##ens
respons ##ible
coll ##ect
hundred ##s
form ##er
mo ##aned
r ##acing
pain ##t
pleas ##ant
##ri ##er
ent ##h
ev ##an
l ##ink
##a ##ves
cl ##ue
const ##ant
cont ##r
te ##ach
av ##ail
dis ##bel
pl ##ant
un ##us
b ##ored
wer ##ent
p ##isto
fang ##s
fall ##s
##er ##al
b ##ord
e ##ss
distract ##ed
prev ##ious
gen ##u
##ink ##led
dr ##um
ey ##el
##l ##an
sac ##rif
k ##idding
##cer ##tain
not ##ed
iss ##ue
trust ##ed
em ##erg
sque ##eze
##am ##ps
gras ##p
n ##ails
aband ##oned
##ll ##e
drink ##s
conf ##idence
st ##all
te ##asing
a ##x
le ##e
att ##ached
bleed ##ing
##ot ##ted
##ad ##o
cur ##ios
a ##st
f ##ence
godd ##am
cigaret ##te
satur ##day
agree ##ment
##gg ##er
study ##ing
laugh ##s
stop ##s
sex ##ual
col ##on
r ##ig
sp ##ort
hum ##or
tele ##vision
f ##ake
##e ##nded
comp ##lic
ve ##ins
tra ##iled
pock ##ets
cl ##as
c ##ere
threat ##ened
al ##ice
ell ##ie
hol ##iday
good ##by
co ##de
am ##used
extreme ##ly
##r ##ating
1 ##0
proper ##ty
##are ##st
w ##ing
c ##age
ar ##rest
##b ##led
run ##s
y ##ards
col ##in
soph ##ie
t ##ank
carp ##et
##el ##ine
am ##anda
m ##all
stro ##de
pant ##ies
pre ##vent
##o ##lf
dra ##ke
##j ##ected
genu ##ine
ser ##ge
##re ##y
z ##omb
rest ##r
disappoint ##ed
##ast ##y
su ##nday
she ##ets
en ##v
##at ##a
shru ##g
w ##icked
hair ##ed
fr ##ed
l ##ace
ex ##tended
##ul ##ation
jac ##ob
univer ##s
d ##w
off ##ering
man ##s
d ##iss
mart ##in
mur ##d
##c ##oming
r ##i
se ##ated
z ##ach
am ##ber
sar ##c
sl ##ipping
k ##ay
se ##es
d ##ylan
comp ##et
claw ##s
exp ##osed
ke ##vin
h ##annah
to ##dd
deser ##ved
ra ##ising
cont ##ain
bar ##n
c ##ore
med ##ic
orig ##inal
cover ##s
b ##owed
main ##tain
g ##own
fin ##n
sus ##an
di ##am
fl ##ame
med ##ical
rif ##le
se ##vent
with ##d
v ##all
am ##use
##re ##te
g ##rief
sh ##ips
gav ##in
perio ##d
she ##riff
fingert ##ips
enorm ##ous
univer ##se
##is ##y
t ##ub
part ##ed
##and ##ra
cent ##uries
w ##ise
just ##in
w ##an
el ##i
##w ##e
imm ##ort
curios ##ity
ex ##ec
freed ##om
##at ##o
h ##ook
so ##le
sur ##ve
thousand ##s
##lo ##ck
##er ##o
fe ##ared
##at ##ively
any ##body
ner ##ves
##u ##gg
vul ##ner
happ ##iness
##are ##n
##t ##a
back ##ground
belong ##ed
hope ##fully
##ap ##ing
##f ##ield
swall ##ow
sh ##y
sw ##ing
m ##ile
te ##nd
##v ##ation
mid ##night
##ol ##as
ad ##ult
t ##ax
bir ##ds
be ##ard
end ##s
w ##olves
sc ##ru
##u ##nd
j ##ordan
squ ##ir
invis ##ible
##at ##ory
##p ##ack
shudd ##ered
brill ##iant
n ##ipp
##or ##g
vis ##ible
pur ##ch
##um ##ble
##ut ##ed
lo ##yal
spe ##nding
mon ##st
##c ##le
sh ##uff
short ##s
ro ##be
fr ##iday
real ##izing
##b ##l
##p ##les
sh ##ining
par ##is
##h ##awk
all ##owing
exp ##ress
k ##yle
inter ##view
##au ##d
b ##ud
##b ##ack
civ ##il
answ ##ering
r ##ab
st ##ated
r ##uss
##ind ##a
del ##icate
nervous ##ly
##be ##at
pass ##enger
sp ##an
mark ##et
jer ##k
del ##iber
kell ##y
da ##emon
collaps ##ed
warri ##ors
n ##ud
cla ##imed
##u ##ce
shiver ##ed
a ##is
spin ##ning
ret ##rie
th ##read
appro ##aching
rem ##ark
gw ##en
##it ##er
are ##nt
d ##ating
acc ##ent
##n ##at
adv ##ice
sh ##own
deser ##t
ass ##ass
hur ##ting
inv ##ited
rhy ##th
bo ##lt
hor ##iz
emer ##ged
ser ##ve
##i ##ven
guest ##s
st ##ones
stu ##bb
act ##ions
cho ##ked
b ##art
requ ##ired
##b ##ly
le ##v
r ##ushing
dar ##ling
qu ##it
vide ##o
cr ##is
p ##ow
wr ##ists
exp ##ensive
over ##head
##d ##le
##ret ##t
scream ##s
def ##ense
ch ##ann
enter ##tain
craw ##led
ch ##amp
phot ##o
comple ##x
tra ##p
##r ##ant
mu ##ff
##u ##el
pro ##ceed
ac ##he
explod ##ed
##f ##l
##anc ##hes
fl ##icked
track ##s
##m ##i
pre ##cious
jen ##ny
v ##ent
##ver ##t
alco ##hol
ele ##ven
int ##ention
u ##lt
cre ##ep
mark ##s
un ##certain
dig ##ging
opin ##ion
t ##uck
st ##ates
fre ##ak
mort ##al
scan ##ned
act ##ual
r ##as
sh ##if
command ##er
cou ##rage
sp ##are
##o ##de
##se ##qu
j ##un
ro ##land
dru ##gs
my ##ster
hung ##er
sho ##pping
reve ##aled
##ch ##an
soci ##ety
sp ##ect
circumst ##ances
l ##ately
co ##ast
sp ##ear
b ##ars
b ##omb
j ##et
kn ##elt
kn ##uck
##or ##ter
dep ##th
eat ##en
l ##az
pro ##gress
pass ##age
by ##e
conc ##rete
d ##az
matt ##hew
l ##an
d ##ante
john ##ny
j ##ol
##en ##ess
##ic ##les
##ch ##ie
##n ##al
jack ##son
gather ##ing
wound ##s
offic ##ial
lo ##ver
##oo ##ped
depart ##ment
mu ##d
mix ##ed
sand ##w
be ##am
bra ##ve
bu ##bb
dro ##ps
##h ##h
ha ##m
##p ##an
fl ##ushed
commun ##ic
st ##ern
betr ##ay
virg ##in
rhyth ##m
col ##t
sit ##s
jere ##my
breath ##s
jen ##n
sc ##are
c ##ord
sa ##ving
fair ##ly
motion ##ed
sc ##ient
c ##ards
shout ##ing
cr ##ash
tast ##ed
charac ##ter
ex ##cell
d ##agger
sy ##mb
eld ##er
den ##y
del ##icious
dra ##gging
r ##at
inf ##ormed
anno ##yed
tr ##unk
fe ##ather
##z ##zy
fo ##g
kno ##cking
av ##a
d ##ude
embr ##ace
hel ##en
bo ##ot
amuse ##ment
mo ##der
mag ##az
mot ##or
pun ##ched
an ##ton
un ##kn
pat ##ient
##it ##ure
r ##ipp
a ##z
ty ##ler
dev ##on
stubb ##orn
te ##ased
wa ##ving
sec ##ure
d ##ave
p ##uff
c ##it
sc ##en
##ed ##s
br ##ushing
tr ##ad
rem ##ains
g ##ul
p ##ra
b ##ike
gl ##ances
opt ##ion
##amp ##le
wh ##it
cred ##it
cre ##ate
cor ##ners
br ##anches
cl ##ary
##ill ##a
n ##est
a ##ye
ter ##ms
##ore ##s
sing ##ing
gl ##it
fam ##il
diam ##ond
air ##port
##i ##ge
##u ##ous
le ##ans
disbel ##ief
col ##ors
y ##ep
fool ##ish
d ##al
r ##uth
fl ##ow
goodby ##e
reve ##aling
rib ##s
de ##e
re ##aches
sh ##attered
ide ##as
##om ##s
add ##ition
l ##or
m ##ack
##es ##ome
prom ##pt
spar ##hawk
##b ##ur
reve ##al
k ##ane
b ##asket
mar ##ked
rand ##om
p ##ages
avail ##able
behav ##ior
rapid ##ly
##im ##ate
grand ##p
lu ##x
v ##ic
sh ##aped
box ##es
##ree ##k
win ##ked
##us ##i
h ##id
t ##ill
tight ##er
ro ##ar
ste ##ad
chick ##en
sw ##itch
furn ##iture
symb ##ol
accom ##pl
p ##s
qu ##e
mel ##issa
v ##ast
b ##ust
w ##ishing
imp ##ro
am ##el
cl ##ick
tre ##vor
##ol ##en
conf ##ront
seat ##s
pisto ##l
jul ##ie
wra ##pping
prec ##ise
incred ##ible
p ##ity
cont ##ent
surv ##ived
##e ##x
deal ##ing
big ##gest
beg ##ins
unc ##onscious
##p ##y
##as ##per
wh ##ipped
mil ##k
l ##in
op ##ens
rem ##ote
##ab ##ility
circ ##les
arm ##ed
ed ##ges
sh ##ane
sc ##attered
je ##an
fur ##ious
##am ##ent
cre ##pt
##oo ##ks
shift ##ing
chang ##es
mar ##ch
skill ##s
##ur ##ally
tr ##ade
##d ##ie
clut ##ched
hand ##ful
tre ##m
sto ##ck
qu ##inn
co ##cked
quar ##ter
app ##l
slee ##ve
phot ##ograph
rem ##ove
new ##sp
pr ##oof
anx ##ious
do ##d
calm ##ly
arg ##ument
grow ##l
j ##ail
w ##re
imp ##ressed
k ##icking
t ##ipped
##ou ##d
m ##ason
pl ##acing
app ##oint
prov ##ided
##it ##ar
sent ##ence
mis ##er
r ##ent
app ##e
ins ##ist
##g ##en
care ##er
##ig ##er
mind ##s
al ##ert
satisf ##action
sp ##at
equ ##ip
side ##walk
grunt ##ed
you ##d
##op ##h
treat ##ed
stud ##ent
liter ##ally
##ap ##h
vers ##ion
foot ##ball
apolog ##ize
r ##ange
imp ##ression
stret ##ch
make ##up
ro ##ger
no ##pe
j ##ill
##light ##s
vall ##ey
win ##ced
jose ##ph
adj ##ust
ha ##bit
threat ##ening
##o ##on
emerg ##ency
##nd ##a
##ll ##ing
exch ##ange
n ##y
##il ##a
bar ##b
dri ##ven
n ##asty
emotion ##al
##g ##ue
g ##ang
lear ##ning
unus ##ual
eight ##een
put ##s
four ##th
sweet ##heart
arri ##ve
w ##y
famil ##ies
we ##al
mir ##anda
godd ##ess
d ##anced
##um ##ents
mar ##ie
p ##ear
enth ##usi
clim ##bing
f ##i
fre ##aking
enem ##ies
rep ##res
##ter ##y
##sh ##it
##l ##ass
ind ##ivid
ro ##ared
sne ##ak
co ##ach
res ##ol
pat ##rick
thr ##one
up ##ward
equip ##ment
resc ##ue
##f ##all
o ##il
dun ##can
as ##p
s ##ire
law ##yer
##ur ##ance
##en ##cer
w ##iz
cr ##own
ro ##le
cu ##pped
l ##un
jess ##ica
defe ##nd
c ##ough
st ##olen
c ##ult
##an ##o
b ##ased
##t ##t
strugg ##le
adv ##ent
flo ##ating
cross ##ing
holl ##ow
greet ##ed
in ##tend
##op ##s
du ##cked
su ##gar
clos ##est
##f ##ord
help ##less
st ##agg
k ##y
r ##ome
ill ##um
k ##in
f ##et
mother ##s
direct ##ions
in ##n
##c ##om
ed ##ward
offic ##ers
wound ##ed
kat ##ie
h ##ank
m ##ont
##he ##ns
ru ##in
up ##right
short ##ly
matt ##ress
anticip ##ation
separ ##ate
he ##ather
lo ##bby
own ##er
d ##ried
##imp ##se
gl ##impse
con ##tem
cr ##ad
rel ##ig
##m ##ate
clo ##ak
che ##ese
jump ##ing
br ##ut
an ##ne
move ##ments
fr ##ost
draw ##er
gigg ##led
gy ##m
heart ##beat
##v ##ille
unkn ##own
sa ##b
luci ##en
shot ##s
excell ##ent
alex ##ander
ne ##arest
char ##ged
cr ##ashed
frust ##rated
real ##m
sho ##ve
bit ##ing
o ##x
ha ##lt
a ##ston
##ou ##l
stri ##p
br ##it
ro ##d
pr ##ick
##um ##n
is ##a
dart ##ed
al ##ien
ad ##rian
back ##pack
fr ##uit
sn ##ake
sad ##ness
per ##man
cent ##ury
##g ##un
aw ##esome
qu ##iver
jes ##se
##ff ##ed
tw ##in
##w ##or
six ##teen
be ##gged
cur ##ve
##r ##owed
o ##be
du ##ke
o ##ak
cru ##el
disco ##ver
stuff ##ed
##t ##ail
ru ##ined
sa ##il
per ##cent
dead ##ly
jew ##el
rare ##ly
cas ##ually
sc ##out
g ##em
sw ##ore
ch ##ic
se ##le
b ##ac
disappoint ##ment
grad ##u
##x ##ed
z ##e
yell ##ing
profession ##al
##m ##ar
imp ##act
sh ##ows
tort ##ure
end ##ing
snar ##led
m ##ama
happ ##ily
ter ##rit
##ct ##ors
e ##rupt
mat ##tered
##f ##ire
##l ##i
gar ##rett
##on ##ing
o ##ught
susp ##icious
##if ##er
m ##i
el ##ena
al ##t
wand ##ered
twist ##ing
cl ##icked
ow ##e
e ##ur
##ik ##a
##er ##ence
gl ##or
crowd ##ed
lim ##bs
##he ##m
##in ##ating
father ##s
m ##ild
rad ##i
own ##ed
sc ##ri
ag ##ony
##is ##ions
tr ##ash
ste ##f
bo ##oth
pretend ##ing
per ##mission
##ul ##ated
##o ##ci
inj ##ured
me ##chan
tem ##por
pot ##ential
a ##ching
##ven ##ge
arm ##or
g ##ain
##ul ##ate
p ##izz
b ##oun
fl ##ashing
##ile ##t
abs ##or
gu ##ide
p ##ig
st ##ress
mo ##lly
prov ##ide
vulner ##able
swift ##ly
fol ##ks
s ##ite
univers ##ity
a ##ust
##ar ##ies
serge ##ant
##ing ##ly
e ##z
clean ##ing
stra ##w
a ##ver
##av ##ier
##g ##ment
soph ##ia
mar ##g
kend ##ra
mo ##ist
##st ##one
elb ##ows
stare ##s
##b ##i
rec ##ent
##re ##g
king ##dom
pat ##ch
sh ##aring
##itt ##y
me ##g
su ##cking
leap ##t
aid ##an
dis ##m
crou ##ched
pound ##ed
##ion ##a
bl ##owing
base ##ment
myst ##ery
sto ##le
sp ##encer
for ##ces
##ar ##on
side ##ways
ex ##isted
bull ##shit
s ##out
as ##he
n ##u
im ##per
str ##ing
bab ##e
stro ##ke
g ##ide
t ##ay
individ ##ual
tess ##a
g ##ates
inf ##lu
t ##ape
##y ##ard
org ##asm
sens ##itive
aff ##ection
v ##iv
aud ##ience
thor ##ough
rev ##ol
##os ##ing
mar ##ble
##ri ##ly
mov ##ies
##ri ##ate
##ar ##se
ow ##en
##ens ##ion
ari ##a
la ##wn
sc ##ary
attempt ##ed
##gg ##y
mo ##b
doub ##ted
scramb ##led
sw ##inging
##ian ##a
viol ##ent
##ling ##s
##al ##ine
act ##ed
sh ##rie
##ud ##ed
arr ##anged
he ##aling
moder ##n
st ##ack
hold ##en
poss ##essed
sur ##ge
great ##er
mo ##nday
ch ##ances
ass ##oci
heal ##th
ent ##ry
tens ##ed
l ##amp
##h ##and
reluct ##antly
re ##ception
est ##ab
##oo ##ps
frown ##ing
b ##or
##d ##a
hesit ##ation
horiz ##on
pos ##itive
f ##ancy
end ##less
pat ##ience
al ##ph
kind ##s
de ##ce
sal ##t
ele ##g
be ##gging
r ##ate
cha ##os
there ##fore
c ##ake
fl ##owing
##h ##ole
confir ##med
whisper ##ing
d ##ow
gide ##on
vol ##unt
uns ##ure
su ##c
##et ##ic
sign ##al
mer ##cy
ma ##id
use ##less
cand ##le
##v ##a
st ##y
hun ##ters
complic ##ated
lone ##ly
hill ##s
s ##ant
##a ##id
grand ##ma
dark ##ened
##u ##ary
fl ##ed
cl ##an
incred ##ibly
clut ##ching
cra ##ft
sou ##ls
she ##er
fre ##qu
l ##ane
phot ##os
you ##th
r ##az
##era ##ld
r ##ings
##r ##om
at ##l
m ##ered
gab ##e
bu ##ddy
l ##as
rom ##antic
assist ##ant
tremb ##led
n ##ed
mel ##ted
so ##re
##r ##in
fl ##ower
##est ##y
mered ##ith
suc ##ceed
a ##pr
cont ##ents
##al ##ie
res ##em
sp ##illed
refle ##ction
sl ##o
##ar ##med
class ##es
supp ##lies
##c ##ra
comm ##unity
la ##ura
r ##agged
fam ##ous
m ##and
wa ##king
r ##ude
t ##ara
con ##sequ
trave ##led
inc ##ident
cur ##ved
l ##ic
met ##h
see ##k
cr ##it
##om ##p
appear ##s
ste ##am
##sp ##ect
const ##antly
car ##ved
##ra ##ged
sh ##iny
bo ##l
en ##vel
k ##h
rout ##e
neighbor ##hood
smo ##ot
t ##ro
fair ##y
envel ##ope
##b ##or
lo ##d
##n ##is
s ##inc
back ##s
al ##oud
b ##ald
use ##ful
snat ##ched
explos ##ion
sy ##d
1 ##8
##ic ##y
st ##ark
##y ##a
dec ##ent
att ##itude
ang ##le
prep ##are
mag ##ical
spr ##ay
lo ##aded
contem ##pl
se ##ason
moon ##light
exper ##t
need ##ing
br ##ide
clean ##ed
di ##pped
knuck ##les
intens ##ity
##is ##c
block ##s
so ##aked
l ##isa
th ##us
capt ##ured
fal ##se
amer ##ica
werew ##olf
weak ##ness
breast ##s
ac ##hed
pol ##ite
prot ##ected
##it ##able
to ##n
exha ##ust
##m ##ist
viol ##ence
high ##way
h ##ired
man ##e
pl ##ung
pour ##ing
pin ##ned
iss ##ues
phys ##ically
ty ##p
suff ##er
ya ##wn
smir ##k
item ##s
sw ##ell
imag ##ination
neck ##l
##an ##or
loo ##s
##im ##med
sh ##imm
adm ##ir
##h ##old
attract ##ive
where ##ver
ord ##inary
screw ##ed
he ##ated
hy ##p
char ##m
friend ##ship
stiff ##ened
cent ##ral
cur ##ls
b ##oring
bit ##s
p ##ed
dri ##pping
v ##ig
re ##ck
sl ##umped
sw ##ords
heal ##thy
##v ##y
sha ##ft
and ##re
pri ##or
for ##b
scow ##led
p ##y
dou ##g
inno ##c
##r ##ison
s ##ons
sp ##ite
the ##ory
fl ##ung
in ##se
jess ##ie
##oll ##en
r ##ag
##at ##tering
wip ##e
grim ##aced
stir ##red
fig ##ures
stro ##king
decl ##ared
##e ##le
w ##ire
z ##oe
cont ##ained
fo ##nd
##bo ##y
egg ##s
lap ##top
pizz ##a
sw ##ollen
hurt ##s
st ##ool
sp ##it
t ##ips
nipp ##le
ar ##rog
b ##un
tw ##ins
cl ##ung
jim ##my
bran ##ch
suff ##ering
st ##ained
st ##icking
tri ##gger
over ##l
pro ##ved
safe ##ly
less ##on
war ##n
dr ##am
ear ##n
li ##l
##he ##st
scar ##let
trave ##ling
dev ##ice
sign ##ific
proper ##ly
n ##ich
m ##ik
gri ##pping
she ##ep
est ##ate
r ##al
tri ##es
o ##d
fe ##ars
##j ##i
spread ##ing
brand ##on
dis ##h
comp ##ared
sc ##ience
separ ##ated
lif ##et
respons ##ibility
serv ##ants
murd ##ered
##ad ##a
wat ##ers
i ##cy
ro ##cked
isa ##ac
sc ##ree
su ##ite
high ##ly
utter ##ly
sig ##ned
chuck ##le
1 ##1
hol ##es
deliver ##ed
se ##l
bal ##c
dw ##ar
sh ##ap
1 ##2
mar ##ia
swe ##ater
pil ##ot
jenn ##ifer
child ##hood
occasion ##ally
k ##aren
esc ##ort
##id ##y
dr ##ained
stef ##an
t ##roll
r ##av
j ##ar
br ##ings
##um ##s
nat ##urally
person ##ally
p ##ir
pl ##anted
ann ##ie
al ##tern
r ##it
ger ##man
da ##isy
te ##aring
round ##ed
just ##ice
wait ##ress
arri ##val
cr ##ushed
spir ##its
cle ##ver
sy ##l
##v ##ar
ele ##ment
##re ##es
##ind ##ing
blo ##cked
a ##aron
##m ##es
ring ##ing
ry ##der
backward ##s
field ##s
ank ##le
k ##r
fun ##eral
mu ##g
prefer ##red
cour ##ty
balc ##ony
exch ##anged
##c ##ast
fore ##ign
craw ##l
l ##ick
to ##e
##k ##ins
ref ##use
l ##ump
surprising ##ly
cl ##ient
ed ##uc
##u ##a
jen ##ks
g ##n
contin ##ues
b ##ark
##er ##c
protect ##ing
sub ##st
cor ##p
##ump ##h
chic ##ago
ha ##z
s ##ally
overwhel ##ming
un ##p
no ##vel
c ##ries
smir ##ked
b ##i
un ##it
ol ##iver
ma ##e
sw ##ip
ad ##ren
tr ##aced
wild ##ly
##bb ##ie
sh ##one
d ##all
sl ##ave
n ##ort
##h ##in
jour ##nal
app ##le
dist ##inct
wip ##ing
##ant ##ha
t ##at
##ri ##k
drag ##ons
de ##lla
e ##h
re ##e
che ##ap
a ##k
me ##lo
re ##y
fl ##ag
sou ##ght
for ##k
repe ##at
p ##ony
exh ##aled
car ##ter
direct ##or
tay ##lor
set ##s
quar ##ters
insp ##ect
kid ##na
pet ##e
##e ##ly
glo ##ves
char ##ming
strange ##ly
##** ##**
ass ##ign
t ##ate
ner ##ve
introdu ##ced
##b ##al
k ##ir
appro ##p
discus ##sion
r ##ack
self ##ish
stair ##case
n ##an
shel ##ter
re ##venge
stret ##ching
pant ##ing
car ##riage
thir ##teen
k ##ings
n ##ail
div ##or
##om ##i
s ##ang
sof ##ia
plat ##form
h ##anna
acknow ##led
##z ##ie
cor ##n
avo ##iding
compan ##ion
##i ##able
prep ##aring
should ##nt
protect ##ive
##b ##re
magn ##us
##dd ##led
vin ##cent
pr ##inc
gentle ##man
to ##mm
lim ##p
lead ##s
lou ##is
trans ##fer
ang ##els
be ##nd
cott ##on
cit ##iz
k ##er
j ##ude
surre ##nder
b ##a
kn ##ot
aid ##en
trad ##ition
anx ##iety
pl ##u
man ##ip
##ie ##ce
terri ##f
question ##ed
sc ##ars
myster ##ious
pound ##s
an ##th
##i ##qu
st ##an
slam ##ming
en ##tering
courty ##ard
concent ##rate
d ##orm
sw ##itched
tall ##er
le ##on
dam ##on
do ##ctors
and ##y
puzz ##led
##nat ##ural
circ ##led
fl ##owed
dream ##ed
sp ##ider
to ##oth
str ##ained
h ##ooked
le ##ge
sp ##raw
greg ##or
ment ##ally
obser ##ved
neckl ##ace
soot ##hing
priv ##acy
he ##el
##ve ##led
bott ##les
br ##ace
cand ##y
##ic ##op
fun ##ction
cr ##ashing
vel ##vet
cal ##if
br ##id
gra ##bs
law ##s
hom ##es
##i ##ar
##all ##ed
no ##str
suff ##ered
st ##ake
hop ##es
coo ##king
sched ##ule
pl ##ates
bo ##ld
ad ##or
sh ##ay
flick ##ered
dis ##e
##m ##n
in ##g
bull ##ets
do ##ck
go ##ss
co ##inc
four ##teen
squeez ##ing
mir ##acle
##o ##ff
##id ##ently
loc ##ated
rout ##ine
mist ##ress
t ##ale
b ##ounced
ch ##ains
pre ##y
mess ##ages
aff ##ect
bab ##ies
direct ##ed
sl ##ap
me ##x
goddam ##n
ha ##ven
hat ##red
calif ##orn
immedi ##ate
w ##igg
miser ##able
toss ##ing
deg ##ree
inter ##ior
heart ##s
fl ##ip
tang ##led
sl ##ick
monst ##ers
eur ##ope
lat ##est
instru ##ctions
etern ##ity
sad ##ly
sl ##im
a ##imed
muff ##led
n ##ina
k ##ed
hel ##icop
g ##inger
accom ##pan
mic ##ro
caut ##iously
butt ##ons
##in ##i
##ing ##ed
includ ##ed
tri ##al
command ##ed
leg ##al
##iz ##es
find ##s
er ##in
val ##ent
rom ##an
smell ##s
volunt ##e
ter ##r
rep ##ut
lo ##s
conscious ##ness
mel ##an
pun ##ishment
to ##ast
dam ##ien
ar ##c
##iz ##zy
see ##king
tal ##ent
equ ##ally
1 ##5
flash ##light
w ##are
intellig ##ence
d ##uck
a ##ug
##ed ##ay
de ##x
som ##eday
##b ##ow
fl ##ared
wh ##im
flo ##ated
swim ##ming
great ##est
to ##ilet
t ##ack
stru ##cture
l ##en
inv ##itation
obl ##ig
##in ##ate
n ##ad
vis ##ited
lab ##or
##ut ##ton
gras ##ped
da ##ily
le ##o
##l ##ers
sho ##ving
bo ##bby
scrat ##ched
cas ##es
ob ##sc
question ##ing
##w ##in
current ##ly
hand ##ing
cal ##cul
squ ##ad
roll ##s
l ##ore
defe ##at
bl ##own
territ ##ory
camer ##on
un ##st
under ##ground
cr ##ush
californ ##ia
n ##ak
##ro ##l
land ##s
hit ##s
##ip ##le
d ##ared
e ##s
underw ##ear
regard ##less
ro ##y
investig ##ation
impress ##ive
g ##ig
##os ##ure
dall ##as
fle ##et
ral ##ph
cor ##por
the ##ra
man ##ager
int ##ently
desce ##nded
lad ##der
a ##chie
contro ##lled
##at ##ter
fe ##ver
str ##ate
b ##ore
fle ##e
##om ##es
##ro ##s
##is ##k
mu ##se
s ##ized
int ##rig
k ##a
feed ##ing
me ##asure
##ens ##es
ass ##ault
lifet ##ime
c ##ain
sle ##nder
jen ##na
rem ##o
d ##ip
world ##s
sout ##hern
k ##atherine
gl ##aring
##ct ##s
m ##ath
after ##ward
un ##ited
s ##inking
go ##al
me ##as
newsp ##aper
eng ##land
sort ##s
pier ##ce
b ##ik
bl ##ess
lex ##i
gl ##owed
##iven ##ess
comp ##ound
requ ##ire
sacrif ##ice
pre ##tended
##ump ##led
count ##ed
un ##re
br ##on
intim ##ate
sun ##sh
bl ##inking
j ##ones
dust ##y
##iss ##ion
dec ##isions
##ul ##a
car ##ing
in ##ev
ank ##les
amel ##ia
ex ##erc
em ##ph
gra ##v
hel ##met
opt ##ions
thank ##fully
sub ##tle
six ##ty
l ##id
fr ##anc
col ##our
obl ##iv
sc ##ot
##ib ##ilities
refle ##cted
gr ##umbled
prison ##er
ag ##ents
des ##igned
adren ##aline
to ##by
scrat ##ch
trans ##port
##b ##les
supp ##ly
bar ##rel
nostr ##ils
sh ##aky
ex ##ample
p ##itch
my ##th
##__ ##__
result ##s
dark ##er
##ing ##e
indic ##ated
may ##or
pop ##ular
at ##op
sen ##ior
##b ##ell
gr ##ade
sam ##antha
tw ##itched
deliber ##ately
imp ##l
ra ##fe
##m ##ark
dra ##ped
jo ##king
serv ##ant
ab ##ilities
##ind ##er
success ##ful
author ##ity
syd ##ney
be ##e
mon ##ica
##m ##ony
##ant ##ically
##am ##m
pers ##u
descri ##bed
lay ##ing
sniff ##ed
po ##nder
spe ##cies
m ##itch
pen ##et
specif ##ic
grou ##ps
betr ##ayed
##ut ##en
camer ##as
sevent ##een
ne ##il
rec ##ords
c ##uff
ais ##le
magaz ##ine
be ##aring
ar ##cher
bar ##ked
emplo ##y
effort ##s
##n ##ot
rid ##ge
##ac ##les
c ##ush
##ent ##h
##ber ##ry
except ##ion
##o ##ver
wr ##inkled
worry ##ing
hamm ##er
sunsh ##ine
creat ##ing
##ph ##y
rel ##ated
t ##in
repl ##ace
mat ##ching
j ##ung
job ##s
##ce ##l
##en ##ch
gri ##ff
nic ##ole
confir ##m
call ##um
curtain ##s
squ ##inted
shirt ##s
rough ##ly
con ##ven
##m ##ates
aw ##a
ch ##asing
prot ##ested
recall ##ed
inh ##aled
eng ##age
t ##iger
flood ##ed
ste ##ep
##olog ##ical
bry ##n
3 ##0
sett ##ling
smo ##king
d ##ata
pr ##ayed
ground ##s
dam ##mit
##f ##o
lock ##er
shall ##ow
odd ##ly
occup ##ied
adj ##usted
f ##en
lie ##uten
comm ##it
she ##lf
##il ##es
a ##ra
trans ##l
descri ##be
min ##i
k ##il
step ##han
##cra ##ft
rep ##orted
unlo ##cked
in ##k
out ##fit
rock ##y
reput ##ation
activ ##ity
cere ##mony
dress ##ing
k ##el
re ##be
##cc ##a
##re ##sh
##ab ##or
car ##m
bright ##ly
gu ##itar
hum ##ili
exam ##ined
f ##ade
##ic ##ient
lo ##ad
det ##ect
ve ##get
ins ##ult
##g ##as
he ##m
eng ##aged
report ##s
land ##sc
stri ##pped
cur ##t
carol ##ine
ar ##th
ad ##op
gu ##ar
##el ##ie
o ##ct
##g ##a
##u ##ish
##un ##ate
incre ##asing
##it ##ching
out ##er
flo ##ors
demand ##ing
sandw ##ich
add ##ing
s ##ib
light ##ing
mem ##or
immort ##al
z ##ero
su ##ic
clas ##ped
part ##ies
so ##b
coll ##ection
out ##s
incre ##ased
tu ##g
##az ##e
bl ##ades
along ##side
##ific ##ation
at ##h
at ##m
form ##al
jon ##as
##t ##or
val ##ue
##u ##ced
fl ##ush
##as ##ant
sm ##ug
l ##ut
ch ##oo
##ag ##ne
sav ##annah
avo ##ided
comfort ##ing
##ar ##i
whir ##led
tri ##umph
shout ##s
irrit ##ated
car ##a
contin ##uing
as ##se
el ##ise
nich ##olas
##sh ##ips
##ct ##ing
##out ##s
an ##aly
do ##z
dis ##hes
w ##agon
sor ##row
vague ##ly
fl ##or
orig ##in
bl ##ush
vict ##ory
dream ##ing
ran ##ch
seeming ##ly
embarrass ##ment
gr ##itted
rail ##ing
st ##or
pan ##icked
colon ##el
m ##ck
comp ##ass
f ##ading
day ##light
ho ##arse
p ##aw
for ##ming
bord ##er
ju ##ice
v ##irt
conf ##erence
cut ##s
t ##ag
maj ##esty
fil ##es
an ##ch
lang ##don
mod ##el
play ##er
##ic ##ted
anno ##ying
doll ##ar
victim ##s
suspic ##ion
gas ##ping
goss ##ip
t ##act
re ##ward
we ##b
##ret ##ched
sy ##n
tor ##ment
ling ##ering
cu ##ps
dist ##r
tu ##gging
h ##art
v ##es
##c ##r
oper ##ation
ac ##ade
ash ##amed
ca ##vern
dow ##nt
jud ##gment
p ##ave
bre ##ed
intim ##id
bas ##ically
c ##ub
pro ##pped
wit ##ches
anno ##y
determ ##ination
acc ##ur
n ##ational
j ##asm
cabin ##et
our ##s
real ##ization
ere ##ction
j ##ab
instinct ##ively
h ##oo
hor ##n
ste ##ering
##l ##ished
se ##am
desp ##air
amaz ##ed
haunt ##ed
gaz ##ing
butter ##f
##id ##ents
need ##le
k ##o
lead ##ers
n ##uts
##old ##ed
do ##ve
re ##in
gr ##ac
pe ##ering
su ##v
##it ##ated
m ##im
ex ##asper
ro ##cking
pl ##ants
breath ##less
be ##w
so ##ap
ke ##en
su ##ng
fire ##place
##is ##tered
qu ##ality
##ur ##i
min ##or
camp ##us
r ##ene
comb ##at
pray ##er
me ##lt
sp ##ots
not ##icing
gigg ##le
##lass ##es
sn ##apping
mat ##ched
bu ##ying
##ast ##ically
##b ##one
ind ##ust
ang ##rily
arg ##uing
o ##o
su ##its
st ##if
ca ##f
fr ##antically
bu ##ff
fort ##une
fant ##asy
##osp ##here
stagg ##ered
d ##ed
po ##ked
alph ##a
to ##ler
fr ##antic
le ##aped
no ##ble
any ##time
cur ##l
blank ##ets
cho ##ices
exc ##iting
somet ##ime
m ##ister
eleg ##ant
flin ##ched
pack ##age
good ##ness
bother ##ing
gentle ##men
eyel ##ids
wiz ##ard
gr ##at
tan ##ner
grandp ##a
peace ##ful
mar ##ched
light ##er
##me ##nd
stri ##king
stal ##ked
fr ##idge
swir ##ling
p ##ine
pain ##fully
approp ##riate
l ##ashes
gar ##b
guard ##ian
d ##ash
dest ##ruction
san ##ct
##ke ##ep
surround ##ings
##az ##z
cand ##les
belie ##f
corp ##se
strang ##ers
tra ##vis
stat ##ue
mic ##he
##j ##ah
slight ##est
g ##ap
g ##au
marsh ##all
s ##ipped
fil ##m
n ##ons
fo ##x
sm ##ashed
ghost ##s
##ard ##on
bus ##hes
##ag ##ers
ass ##ure
horri ##fied
p ##aced
##a ##a
luck ##ily
bl ##ushed
vac ##ation
t ##aunt
attempt ##ing
bl ##iss
aw ##e
ho ##pped
bu ##nd
em ##ail
li ##on
con ##gr
##ap ##ers
blo ##cking
trans ##p
moment ##arily
thro ##bbing
##us ##ive
occasion ##al
v ##est
instru ##cted
gl ##im
imp ##ul
gr ##anted
jos ##ie
##m ##ond
brit ##ish
lieuten ##ant
isab ##ella
lung ##ed
neat ##ly
d ##umped
cons ##umed
dwar ##f
##in ##ity
sc ##or
se ##v
ag ##ed
##at ##ives
sp ##ike
##ar ##ian
sp ##y
sm ##ack
f ##iona
trans ##f
break ##s
cl ##it
real ##ised
typ ##ical
a ##very
##un ##ks
r ##ows
##ly ##ing
man ##sion
odd ##s
sho ##e
count ##ing
war ##ren
depth ##s
se ##aled
tit ##le
int ##ru
hesit ##ate
##wh ##ile
z ##ack
m ##es
precise ##ly
fa ##e
n ##ause
bell ##a
nat ##alie
among ##st
##um ##es
distract ##ion
was ##ted
overwhel ##med
e ##c
appro ##val
bene ##fit
r ##iv
ch ##urn
fin ##an
doz ##ens
he ##aled
br ##aced
bus ##h
soft ##ened
d ##ump
mill ##er
jo ##ining
nor ##a
gre ##ed
beat ##en
init ##ial
##av ##i
stat ##us
pres ##er
attract ##ed
shif ##ter
exper ##iment
blur ##ted
##ir ##on
##j ##am
wis ##hes
fire ##s
intern ##et
l ##ind
pol ##ished
comm ##itted
temper ##ature
pat ##hetic
w ##ry
exp ##and
out ##l
un ##se
w ##rest
rebe ##cca
##al ##i
##id ##a
helicop ##ter
stab ##bed
it ##al
pit ##ched
r ##amp
gra ##ham
##d ##own
##um ##ing
to ##y
v ##ik
c ##ade
base ##ball
pol ##itely
c ##ure
head ##ache
p ##up
coll ##ected
f ##ishing
step ##hen
p ##ushes
mon ##k
equ ##al
stra ##nds
secret ##ary
domin ##ic
over ##he
comb ##ination
washing ##ton
hy ##ster
cl ##er
arg ##ued
gift ##s
vis ##iting
tre ##y
are ##as
assum ##ing
##zz ##ie
symp ##athy
dev ##ast
jasm ##ine
electric ##ity
##ard ##ed
##ur ##d
jung ##le
cou ##ghed
ho ##vering
##sh ##ot
##w ##ed
tomm ##y
je ##ep
over ##t
rig ##id
##a ##way
thir ##st
wall ##et
autom ##atically
ste ##aling
reg ##ister
wh ##ore
haul ##ed
remind ##ing
crim ##son
b ##ern
d ##anc
mouth ##s
mist ##y
##ish ##ly
i ##zzy
m ##it
une ##asy
reco ##vered
20 ##1
sm ##ash
craw ##ling
o ##m
russ ##ian
qu ##al
tex ##as
k ##ira
repres ##ent
se ##ized
mane ##u
mon ##itor
p ##acing
sad ##dle
sinc ##ere
l ##icking
t ##el
un ##ique
ear ##ned
appoint ##ment
fr ##ances
##om ##y
inst ##r
gr ##ins
bas ##ic
unh ##app
disappear ##ing
flut ##tered
br ##ady
##ipp ##er
chann ##el
ash ##ley
wre ##ck
desper ##ation
fl ##ir
gl ##ist
swe ##eping
##ad ##d
cl ##apped
med ##ia
##ol ##o
wh ##ip
##qu ##is
sigh ##s
rem ##ar
road ##s
mount ##ed
swe ##ep
rit ##ual
abs ##ence
consequ ##ences
right ##s
pain ##ter
for ##ms
##ain ##ted
st ##ing
k ##ur
##is ##er
wes ##tern
##l ##ord
dan ##i
ens ##ure
tele ##phone
ex ##tend
##ab ##les
polit ##ical
##l ##as
sh ##red
##ad ##in
##ra ##k
thr ##illed
nightmare ##s
te ##aching
sa ##int
cott ##age
con ##sp
sc ##roll
cur ##ling
z ##o
##bo ##x
m ##our
ident ##ity
lim ##ited
greet ##ing
aug ##ust
surv ##ival
encoun ##ter
no ##ises
produ ##ced
##n ##ic
psych ##ic
##m ##ber
ser ##ving
cow ##ard
##l ##ow
guess ##ing
thor ##ne
congr ##at
comp ##re
me ##gan
isab ##elle
sol ##ution
wand ##ering
tempt ##ed
pier ##cing
shudd ##er
a ##ven
ph ##r
ph ##ill
bel ##gar
m ##ouse
el ##abor
na ##omi
le ##ah
reass ##uring
hu ##gh
stand ##ard
##u ##k
neighb ##ors
walk ##er
sal ##v
sa ##le
aff ##air
influ ##ence
bo ##ston
tr ##oops
spr ##ang
re ##vel
acknow ##ledge
drift ##ing
g ##ary
st ##able
fr ##amed
hat ##ch
disg ##u
fir ##ing
tu ##be
ill ##eg
atm ##osphere
asse ##mb
ann ##ounce
viol ##ently
rev ##iew
kr ##ist
techn ##ology
trail ##er
cur ##iously
shot ##gun
apolog ##y
se ##al
j ##ase
ling ##ered
park ##er
all ##ie
burn ##s
##ch ##ief
rum ##ors
compan ##ions
pee ##ked
rob ##in
f ##bi
bec ##omes
sp ##ill
tou ##ches
tre ##asure
m ##ing
war ##y
champ ##agne
lock ##s
##um ##er
##ar ##ms
gu ##ided
fift ##h
sn ##ort
l ##av
ted ##dy
rep ##air
sk ##et
##ul ##ations
or ##n
##et ##he
ur ##ged
musc ##ular
rece ##ive
instinct ##s
ta ##pping
li ##ber
trans ##form
li ##v
jo ##ey
skin ##ny
buck ##et
sp ##ed
ell ##a
pre ##ston
ves ##sel
b ##our
ab ##b
erupt ##ed
rust ##y
##l ##en
gra ##vel
nud ##ged
##v ##an
fort ##unately
ow ##ed
speak ##s
ri ##bb
sl ##iced
win ##ning
tuck ##er
cris ##p
dise ##ase
bar ##rier
##ip ##er
wid ##er
##it ##ri
terri ##bly
frag ##ile
n ##ah
##an ##ne
human ##ity
fact ##s
dress ##er
comple ##ted
r ##ipping
t ##umbled
##en ##ced
sm ##ear
ho ##vered
car ##son
res ##our
hu ##gging
sport ##s
lauren ##ce
nons ##ense
franc ##is
fore ##arm
##l ##ar
st ##er
downt ##own
thumb ##s
al ##an
v ##om
finger ##n
to ##b
song ##s
shru ##gs
being ##s
d ##izzy
pan ##el
##t ##es
w ##ander
wr ##it
mo ##ck
gl ##ory
dest ##ination
su ##ll
##ot ##ing
ev ##a
inv ##ite
g ##a
tick ##et
cur ##b
ste ##ven
suit ##case
##ar ##ch
al ##b
than ##ked
adv ##anced
ge ##org
tor ##so
ag ##es
d ##ane
whe ##els
t ##iss
##ot ##i
##l ##im
worth ##y
gle ##aming
r ##im
convers ##ations
no ##on
ang ##ie
##it ##ors
wor ##ries
hard ##ened
zomb ##ie
lea ##f
note ##book
##if ##ying
stra ##p
p ##ent
arth ##ur
ch ##ip
##oo ##led
pill ##ows
decl ##an
tor ##ch
##xt ##ure
invol ##ve
un ##ple
ap ##oll
1 ##7
jealous ##y
fl ##aw
shel ##ves
##ay ##ing
back ##ing
sav ##age
knight ##s
nin ##et
emp ##ire
they ##ll
sl ##ice
withd ##rew
##ro ##se
exc ##l
sand ##y
case ##y
la ##unched
kn ##ives
nav ##y
treat ##ment
anth ##ony
p ##ry
g ##oose
j ##une
cl ##in
develop ##ed
poss ##ession
mess ##ed
perman ##ent
thought ##ful
fright ##ening
spo ##on
deser ##ted
lift ##s
p ##am
free ##zing
h ##ut
##st ##ick
dest ##iny
reason ##able
imag ##ining
valent ##ine
she ##r
adm ##in
min ##im
gener ##ally
crim ##inal
lic ##ense
assass ##in
f ##itting
f ##ulf
reco ##ver
concent ##rated
war ##med
belie ##ving
l ##am
sn ##ugg
inter ##f
dev ##our
##dd ##le
fin ##ishing
##ss ##a
##ag ##ging
d ##well
th ##ud
a ##ly
sch ##ol
a ##rou
b ##ould
sole ##mn
bill ##s
##u ##ch
cell ##s
we ##ary
he ##ck
mad ##ness
p ##ic
ve ##gas
smoot ##hed
##w ##are
purch ##ase
lege ##nd
##v ##as
new ##ly
em ##per
expl ##ode
might ##y
##ol ##a
f ##oul
p ##out
1 ##3
a ##j
pot ##ato
##r ##ors
##aught ##ers
chew ##ed
pave ##ment
incl ##ined
##n ##els
sou ##p
pen ##ny
pin ##ched
bl ##unt
who ##s
per ##ry
ro ##ses
magn ##ific
ware ##house
f ##ount
long ##ing
ref ##using
melo ##dy
remind ##er
ple ##ading
laz ##y
pl ##ot
can ##n
boun ##cing
a ##int
terrif ##ying
mad ##ame
top ##ic
scan ##ning
ital ##ian
corre ##cted
medic ##ine
count ##y
##let ##s
##e ##nder
##l ##ad
ass ##ess
smooth ##ly
super ##ior
##w ##ing
haw ##k
de ##af
##ip ##her
##i ##i
be ##nding
cl ##ients
le ##w
fail ##ure
expl ##aining
mis ##ery
dis ##ag
pony ##tail
effect ##s
all ##y
amb ##ul
aff ##ected
vol ##ume
ver ##on
weal ##th
brut ##al
tw ##ir
is ##ol
##u ##able
eli ##jah
x ##avier
zomb ##ies
rub ##y
port ##al
swir ##led
creep ##y
pip ##e
v ##icious
##im ##ately
dec ##ades
jud ##ging
impat ##ient
s ##ack
##ul ##ted
landsc ##ape
fac ##ility
bar ##g
l ##on
li ##ar
test ##ing
al ##to
slee ##ves
##ound ##ed
sur ##g
pr ##on
lay ##er
##qu ##ar
beck ##y
fe ##m
grad ##ually
ins ##ides
d ##ies
cr ##ooked
bur ##y
pro ##spect
cl ##amped
##ines ##e
serv ##ices
suggest ##ion
trou ##s
sm ##acked
j ##ap
##ad ##or
br ##oo
so ##cks
aver ##age
pers ##p
mad ##die
regard ##ed
cl ##ust
plung ##ed
bu ##g
y ##o
m ##age
tele ##p
work ##ers
witness ##ed
bl ##ouse
m ##mm
so ##ber
##ess ##a
att ##or
d ##il
repl ##ies
##ep ##end
accompan ##ied
eye ##ing
tort ##ured
##os ##ition
inj ##uries
kell ##an
##c ##ut
b ##ump
sigh ##ing
cat ##s
vig ##or
##z ##er
tra ##iling
stun ##ning
g ##ained
cl ##am
sp ##illing
##ish ##a
##aw ##are
dim ##itri
##r ##im
arrest ##ed
rec ##on
##ul ##ty
ple ##aded
##en ##n
##it ##ute
per ##ched
##ou ##ch
thorough ##ly
hel ##ps
1 ##4
ne ##ut
mist ##akes
ed ##ged
muse ##um
dr ##ama
a ##ura
sung ##lasses
ch ##inese
tempor ##ary
z ##one
advent ##ure
custom ##ers
sam ##uel
cl ##inging
m ##cc
ir ##re
veh ##icles
##o ##id
##u ##ge
griff ##in
flick ##er
too ##ls
l ##inc
ex ##ited
se ##ed
cl ##aud
ratt ##led
personal ##ity
##er ##ted
##en ##elle
##ic ##ated
##im ##ents
dis ##aster
pray ##ing
princ ##ip
discus ##sed
josh ##ua
deal ##t
stor ##age
bed ##s
elect ##ron
shiver ##ing
scow ##l
re ##ed
p ##ump
af ##ric
t ##ires
##ut ##tered
shad ##es
c ##ities
k ##or
##ch ##a
gl ##oss
##ian ##o
introdu ##ce
pr ##ime
he ##ctor
ch ##ased
t ##as
werew ##olves
inter ##rog
trou ##bled
t ##ilt
rh ##ys
##nd ##ry
whis ##key
##o ##en
fo ##yer
cr ##an
d ##aughters
jul ##iet
kind ##a
##ve ##y
dec ##iding
capt ##ure
suic ##ide
kne ##eling
de ##er
ind ##epend
l ##ance
lim ##it
mo ##ld
bel ##oved
str ##ict
hast ##ily
body ##gu
p ##iled
ed ##en
hop ##eless
ja ##enelle
cho ##king
jer ##ry
prof ##ile
f ##id
b ##unk
pe ##cul
spark ##s
##ar ##re
bu ##bble
level ##s
##bb ##ling
art ##icle
distur ##bing
annoy ##ance
n ##ut
ha ##ze
over ##s
death ##s
sa ##ge
hea ##ved
beast ##s
##ud ##ge
unb ##elie
aband ##on
cel ##est
puzz ##le
assign ##ment
echo ##ing
opp ##on
dr ##ain
fant ##astic
r ##oth
##g ##ra
aw ##h
prison ##ers
squ ##at
jun ##ior
awkward ##ly
c ##reek
emph ##as
wait ##er
ch ##ad
##an ##i
unple ##asant
##g ##ers
sw ##orn
te ##ase
m ##out
bl ##ows
da ##le
tem ##ples
encou ##rage
bru ##ises
##ay ##s
who ##a
##p ##ower
aware ##ness
intellig ##ent
art ##ist
divor ##ce
impat ##iently
fe ##min
melan ##ie
li ##a
wind ##s
garb ##age
fe ##ast
lev ##i
sell ##ing
spe ##cul
belgar ##ath
dang ##ling
decor ##ated
##ang ##ing
env ##iron
rab ##bit
h ##an
br ##ains
stud ##io
re ##ject
1 ##6
ca ##ution
j ##unk
m ##ant
tax ##i
pear ##l
##h ##i
##ul ##ating
har ##per
##au ##de
shuff ##led
##id ##ers
##r ##ad
k ##ent
aw ##ak
blaz ##ing
##ch ##ar
##ri ##ger
exhaust ##ion
sl ##ides
thought ##fully
##un ##ken
syl ##v
cl ##ip
ref ##riger
stead ##ily
remar ##ked
##u ##ction
bart ##ender
intent ##ions
arrog ##ant
appreci ##ated
mar ##a
regard ##ing
gener ##ous
char ##ges
let ##h
##b ##ling
fr ##an
sa ##fer
tri ##b
co ##in
test ##s
tun ##nels
differ ##ently
prom ##ises
compl ##iment
fu ##el
hist ##or
miche ##lle
##oo ##ping
sky ##la
luci ##var
max ##im
jap ##an
cr ##umpled
##ent ##ially
acc ##us
##ul ##sion
rep ##orter
cap ##ital
pecul ##iar
hum ##ming
char ##ity
rec ##ru
loyal ##ty
##w ##orth
pat ##iently
##at ##hed
##b ##an
fl ##are
sens ##ual
neg ##oti
wr ##ath
lower ##ing
##in ##ter
cur ##ves
emper ##or
concl ##usion
concent ##ration
mic ##ah
guard ##ed
part ##ners
less ##ons
pill ##s
raz ##or
last ##ed
spark ##ling
li ##zzie
##ane ##ously
in ##her
st ##ung
off ##ended
##ink ##ling
acc ##used
motor ##cy
enthusi ##asm
##ce ##ler
0 ##00
care ##s
##p ##oint
pa ##uses
in ##ward
##ct ##ive
sweat ##y
bur ##den
##a ##ire
cr ##ushing
thr ##ill
f ##are
descri ##ption
b ##in
sh ##ri
to ##ps
##nd ##y
cent ##re
tw ##itch
##w ##ind
all ##ison
cass ##idy
rele ##asing
dam ##aged
citiz ##ens
stro ##lled
visit ##ors
fi ##ery
##n ##ge
wis ##dom
d ##ess
ph ##oen
sc ##al
on ##line
ac ##celer
##m ##ie
sl ##ipp
c ##em
con ##ver
discus ##sing
vis ##ions
lut ##her
faint ##ly
pow ##der
jewel ##ry
thank ##ful
al ##bert
shrie ##ked
inj ##ury
##zz ##le
##for ##ce
##ren ##ce
contr ##ast
awh ##ile
f ##est
fol ##k
cal ##vin
sc ##ur
pick ##s
ec ##st
jul ##es
so ##il
con ##qu
w ##ool
bell ##e
cher ##ry
th ##ump
po ##le
compass ##ion
##eng ##ers
ambul ##ance
fashion ##ed
inev ##itable
mess ##y
br ##un
offic ##ially
fierce ##ly
sh ##am
pass ##es
##c ##est
##f ##ic
ass ##igned
##oo ##ling
k ##i
##om ##a
##ch ##ant
cor ##ps
tight ##ening
su ##cks
cook ##ies
ab ##o
##re ##ll
sn ##ick
resist ##ance
y ##el
sh ##orter
retreat ##ed
ro ##ots
##ak ##able
cass ##andra
present ##ed
pr ##int
hand ##led
men ##u
d ##ashed
lan ##tern
irrit ##ation
pop ##ulation
hu ##ddled
hun ##ched
##r ##ical
alto ##gether
##m ##ail
t ##iff
can ##cer
over ##come
del ##ic
daz ##ed
exerc ##ise
sk ##ipped
##l ##ict
stick ##s
mal ##col
th ##orn
distur ##bed
z ##eke
##u ##its
paper ##work
embarrass ##ing
disapp ##ro
cast ##ing
rub ##ber
##b ##ag
so ##bbing
attempt ##s
phil ##os
phoen ##ix
##b ##on
compl ##ained
mult ##iple
con ##cept
stream ##ing
v ##lad
sky ##e
nort ##hern
bit ##es
pier ##ced
sev ##enty
##in ##ent
crack ##ing
do ##l
sc ##ul
mad ##ison
##ast ##e
bew ##ild
delight ##ed
intern ##al
mar ##c
comment ##ed
l ##ords
scul ##pt
dismiss ##ed
sen ##ator
we ##igh
app ##et
sl ##ope
re ##x
ch ##ips
v ##ivid
inv ##iting
y ##er
chr ##isto
lim ##its
eager ##ly
rest ##less
dry ##ly
##keep ##er
sur ##ged
environ ##ment
urg ##ent
0 ##0
ill ##usion
##es ##day
ste ##w
##ien ##na
sto ##ve
b ##ic
##it ##ches
j ##ade
##es ##y
##v ##able
meth ##od
s ##ession
log ##ic
ox ##y
ind ##ul
wat ##ches
fur ##rowed
am ##id
obliv ##ious
me ##ad
swe ##ating
free ##ze
techn ##ically
##ro ##d
car ##go
ign ##or
sl ##aves
##pp ##ers
un ##aware
circ ##ling
en ##velop
bol ##ted
in ##ex
remo ##ving
##se ##at
forget ##ting
for ##d
tu ##esday
co ##s
disc ##on
flick ##ering
apoll ##o
g ##us
speak ##er
malcol ##m
j ##agged
bo ##om
disg ##usted
viv ##ian
s ##i
ro ##gue
murm ##ur
val ##uable
tun ##e
span ##ish
##m ##od
part ##ially
supp ##er
ge ##or
incred ##ulous
attract ##ion
anton ##io
##t ##ies
##ot ##es
par ##ano
bru ##ised
pat ##rol
coinc ##idence
che ##m
fold ##ing
focus ##ing
##z ##a
ex ##agger
cur ##sing
surre ##al
g ##ust
##ad ##er
the ##ater
track ##ing
mi ##xture
gr ##uff
mer ##c
##ol ##ved
sl ##ung
b ##ish
enc ##l
aw ##oke
sh ##aken
##ic ##ia
ha ##v
br ##isk
l ##issa
##ig ##hed
sl ##ack
r ##ory
abs ##ently
d ##ated
##c ##ery
perform ##ance
trous ##ers
##et ##an
stra ##pped
dep ##ut
u ##l
back ##seat
resol ##ve
p ##and
const ##ruction
shap ##es
distr ##ict
not ##ion
mo ##cking
c ##atherine
p ##ac
tem ##p
dar ##ius
##ell ##ing
##le ##e
black ##ness
fl ##ipping
ch ##u
bu ##dd
r ##ational
fu ##nd
b ##iz
##ang ##le
t ##ad
##v ##ant
st ##ella
we ##a
car ##n
rec ##om
sun ##set
nad ##ia
h ##ire
flu ##id
cat ##ches
fle ##x
mach ##ines
li ##lly
wind ##ing
sanct ##uary
carl ##os
mean ##while
abo ##ard
be ##au
finan ##cial
##ch ##air
##ced ##ed
p ##ix
sens ##ing
sched ##ul
sp ##ur
back ##yard
em ##erald
lou ##nge
genuine ##ly
s ##asha
his ##s
adv ##ance
ind ##ian
comb ##ined
amaz ##e
dor ##ian
mar ##co
communic ##ation
##k ##o
##or ##se
fel ##ix
reluct ##ant
##p ##it
se ##pt
##al ##a
##iss ##y
grav ##ity
l ##aced
##us ##ions
pict ##ured
inter ##p
str ##ings
##r ##r
##is ##her
##ic ##ian
reg ##istered
bon ##nie
swall ##owing
doubt ##s
ag ##gress
##os ##al
##he ##a
##ep ##ed
elabor ##ate
attack ##s
star ##ving
down ##ward
f ##iction
m ##ab
un ##ion
cem ##et
dr ##unken
to ##ll
ne ##p
sleep ##y
sway ##ed
conf ##ess
ch ##ant
##sc ##ri
th ##urs
##im ##eter
k ##ara
clos ##es
fr ##ance
cemet ##ery
still ##ed
thurs ##day
##ur ##g
str ##ain
##ot ##a
##w ##w
mal ##es
d ##us
nap ##kin
##it ##o
spell ##s
r ##ats
an ##cest
dal ##ton
##ac ##ity
lau ##ndry
g ##reek
magnific ##ent
mist ##aken
lo ##cking
d ##ub
com ##ments
mer ##ry
caress ##ed
fant ##as
old ##est
trem ##ble
##m ##ic
pa ##using
kal ##adin
pack ##ing
a ##er
bo ##ats
comm ##er
rel ##ent
pen ##cil
ele ##anor
wh ##imp
whim ##per
he ##ir
b ##umped
##os ##es
fl ##ashes
tal ##ks
prep ##ar
n ##umer
illeg ##al
scal ##p
pract ##ical
dist ##ress
spraw ##led
##k ##ind
sal ##es
##ap ##se
press ##es
pri ##ze
fl ##av
fil ##thy
sc ##ore
accept ##ing
te ##nded
##z ##o
arrow ##s
##ap ##or
refriger ##ator
rap ##ha
arri ##ving
ob ##st
expl ##ore
##her ##on
fl ##att
go ##in
##te ##gr
unlike ##ly
pregn ##ancy
ro ##pes
m ##ah
pro ##c
ser ##ena
marg ##aret
sac ##red
dress ##es
teen ##ager
broo ##ke
position ##ed
pl ##o
sc ##ale
b ##out
lo ##vers
##ro ##be
ac ##heron
mar ##i
di ##al
shut ##ting
lu ##is
##if ##ully
extra ##ord
scen ##ar
e ##ag
attack ##ing
ins ##urance
dri ##vers
g ##ross
convin ##cing
po ##nd
r ##us
su ##p
cler ##k
sun ##ny
##he ##nd
r ##ic
jon ##ah
den ##ied
cl ##aude
will ##ow
unhapp ##y
blast ##ed
meet ##ings
gen ##ius
wa ##x
help ##ful
nav ##ig
mom ##my
##umb ##les
scar ##f
haz ##el
retrie ##ve
beth ##any
sc ##ooped
neut ##ral
react ##ed
bl ##essed
init ##i
apr ##il
gut ##s
##her ##ed
so ##bs
fem ##ales
var ##iety
lar ##ry
hope ##ful
ven ##ge
symp ##at
return ##s
cow ##boy
d ##aw
g ##oo
sec ##ured
ch ##ina
repeated ##ly
buzz ##ing
addition ##al
educ ##ation
ru ##ff
n ##ash
cl ##ad
fold ##s
##nes ##day
round ##s
ell ##e
too ##l
object ##s
stu ##art
reser ##ved
con ##so
demand ##s
biz ##arre
whist ##le
wed ##nesday
smell ##ing
##is ##hes
st ##umbling
jo ##el
call ##ie
surv ##iv
sco ##ffed
disgust ##ing
buzz ##ed
rec ##ip
##f ##its
und ##ead
betray ##al
b ##om
motion ##less
g ##rie
##ag ##ues
res ##ort
mill ##ions
ass ##hole
sw ##am
##uff ##ed
bish ##op
feather ##s
eight ##y
##ul ##ting
proceed ##ed
l ##ana
adult ##s
cr ##inged
oxy ##gen
dep ##os
rom ##ance
s ##ly
heaven ##s
ident ##ify
pur ##sed
k ##itten
##al ##f
accident ##ally
can ##vas
exam ##ine
remind ##s
##ate ##ll
mot ##el
di ##ana
so ##ck
de ##le
lur ##ched
tip ##to
const ##ru
t ##ire
dut ##ies
chew ##ing
##g ##ic
summ ##oned
crack ##s
port ##ion
pun ##ish
##ust ##omed
co ##dy
gigg ##ling
d ##j
sil ##ky
mur ##phy
##am ##iliar
signific ##ant
blind ##ing
fount ##ain
mad ##eline
concer ##ns
ex ##quis
up ##side
mout ##hed
else ##where
r ##umbled
refer ##ring
t ##ut
super ##natural
saw ##yer
bright ##er
deliver ##y
stick ##y
glit ##tering
def ##ensive
rapha ##el
##br ##is
encoun ##tered
free ##ly
b ##um
unf ##amiliar
alt ##ar
express ##ions
d ##ign
lar ##gest
phill ##ip
activ ##ities
sol ##ve
aut ##umn
l ##inked
##iv ##ity
mid ##st
ev ##idently
po ##d
sh ##ine
aud ##rey
li ##king
relig ##ious
out ##st
rob ##ot
class ##room
fur ##iously
c ##ath
##ber ##g
partic ##ip
ax ##e
tal ##on
proud ##ly
bas ##is
g ##aping
frances ##ca
sh ##ack
br ##ass
sho ##cking
vo ##id
count ##less
comp ##ar
##b ##its
ninet ##een
whit ##ney
j ##em
sub ##s
pe ##nd
pip ##er
p ##iano
e ##con
up ##d
can ##e
p ##umping
tri ##be
##qu ##et
stom ##ped
str ##ide
ru ##g
fasc ##inated
andre ##a
##un ##ching
d ##na
p ##ardon
tiff ##any
res ##isted
attor ##ney
system ##s
glor ##ious
##ink ##le
##fo ##ot
ident ##ical
bat ##tered
it ##ll
depe ##nd
di ##aled
inf ##ected
cal ##med
##our ##s
absor ##bed
femin ##ine
cre ##eping
st ##ench
caut ##ious
d ##ome
inde ##x
depe ##nds
##x ##ic
s ##ust
tra ##itor
bac ##on
fe ##e
bed ##side
m ##ound
st ##ance
be ##amed
c ##ue
##ar ##ming
drown ##ing
luci ##an
ra ##ises
abs ##urd
##ld ##er
se ##mi
str ##ay
##olo ##get
g ##in
m ##used
pu ##ppy
painting ##s
shif ##ters
stra ##nd
pl ##as
d ##ates
retrie ##ved
cons ##ci
##all ##s
tal ##es
assist ##ance
min ##ister
aven ##ue
##ag ##an
strong ##ly
cre ##st
##om ##et
ske ##pt
obe ##y
h ##ilt
scra ##ped
start ##ling
##ir ##m
col ##umn
j ##umps
play ##ers
tim ##ing
choo ##sing
##o ##dy
willing ##ly
s ##ienna
withd ##raw
ch ##oke
ro ##ot
##here ##nt
imm ##ense
st ##ormed
##el ##a
stay ##s
meant ##ime
deg ##rees
sarc ##asm
trust ##ing
defe ##ated
shift ##s
stir ##ring
teacher ##s
##t ##r
off ##ers
sal ##ad
gul ##ped
dram ##atic
eas ##tern
secret ##ly
truck ##s
r ##ank
sa ##etan
br ##ay
a ##rous
##land ##s
led ##ge
poss ##ibilities
distur ##b
e ##go
gall ##ery
arous ##al
g ##ay
they ##ve
log ##ical
car ##r
ro ##aring
res ##ent
sc ##he
del ##ay
out ##rage
rum ##ble
drown ##ed
w ##ield
le ##ague
asp ##ect
re ##acher
nin ##ety
o ##un
happ ##ier
diffic ##ulty
sun ##k
br ##itt
co ##ven
conf ##essed
hig ##hest
specif ##ically
ad ##ri
pap ##a
sim ##ult
jo ##int
l ##ame
e ##erie
ch ##an
pe ##eled
guar ##ant
st ##alk
or ##le
din ##er
##ann ##on
al ##ter
pat ##ients
off ##ices
f ##umbled
town ##s
##en ##zie
c ##ul
bast ##ards
st ##acked
compl ##ain
hus ##ky
fingern ##ails
al ##ike
unc ##ont
ell ##iot
bar ##re
gun ##ner
scar ##ce
o ##s
frank ##ly
sh ##ark
t ##aut
fo ##ster
##ig ##an
2 ##00
##u ##f
coll ##apse
ph ##ones
foll ##ows
was ##ting
gest ##uring
v ##ote
st ##il
sa ##un
pe ##ek
prop ##he
##la ##im
an ##a
wo ##nd
mas ##ters
o ##g
relation ##ships
suspic ##iously
##am ##ble
pos ##itions
prompt ##ed
appre ##hens
sed ##uct
lay ##la
mas ##cul
hay ##den
nep ##hew
blur ##red
resour ##ces
off ##ense
g ##aped
vir ##us
##c ##iously
cous ##ins
b ##ou
##w ##ords
un ##l
f ##ans
mar ##s
co ##y
guarant ##ee
own ##ers
hu ##ff
threat ##s
##ail ##ed
celebr ##ate
their ##s
##ye ##es
may ##a
##se ##e
h ##ates
gr ##inding
emplo ##yees
##be ##y
night ##stand
to ##nes
pain ##ed
jer ##king
weak ##ly
m ##ak
##b ##ar
st ##ain
ag ##ency
se ##qu
disc ##omfort
kno ##b
cond ##om
##r ##as
motorcy ##cle
po ##se
dess ##ert
un ##co
v ##ital
sne ##aking
outst ##retched
h ##ud
##c ##omed
po ##pping
scri ##pt
grat ##itude
doc ##ument
d ##ense
appl ##ied
hall ##s
tiss ##ue
sk ##ip
pred ##ict
acknowled ##ged
isab ##el
appear ##ing
dri ##pped
th ##resh
requ ##ested
shop ##s
##~ ##~
tattoo ##s
##h ##ou
tri ##pped
sweet ##ie
recogn ##ition
perfect ##ion
##h ##o
part ##ly
st ##ink
sty ##x
lace ##y
##az ##ar
su ##ited
h ##ind
ab ##ig
de ##bris
row ##an
he ##ap
achie ##ve
jo ##kes
##s ##a
##y ##ers
add ##s
mot ##ions
mut ##tering
t ##ested
neg ##ative
mel ##ting
##olog ##ist
elder ##ly
##ant ##h
bl ##oss
hu ##ffed
##iv ##a
numer ##ous
tra ##um
amer ##ic
p ##el
m ##ast
g ##ee
le ##cture
sp ##aces
relax ##ing
stud ##ies
trick ##s
buck ##s
luc ##an
str ##aining
eliz ##a
die ##go
gard ##ens
alex ##ia
mind ##ed
ty ##pes
##i ##ac
##ill ##s
##el ##and
add ##ressed
origin ##ally
##no ##ld
##az ##ed
bee ##f
ess ##ence
pass ##engers
belie ##ves
go ##lf
ex ##ter
stro ##kes
jo ##an
christo ##pher
o ##min
thresh ##old
d ##aring
n ##ix
grim ##ly
pe ##er
esc ##aping
p ##us
con ##ner
d ##at
##w ##ater
sway ##ing
pro ##ven
unfort ##unate
##o ##lyn
mob ##ile
reg ##ion
import ##ance
jo ##ked
fre ##aked
teen ##age
sant ##a
##ac ##on
ch ##unk
loo ##p
##quar ##ters
comp ##rom
g ##arr
po ##king
dan ##a
home ##work
innoc ##ence
dem ##e
illum ##inated
murm ##urs
amaze ##ment
mad ##dy
per ##p
ol ##ive
du ##ff
##e ##in
r ##ue
we ##ighed
##ress ##ing
sle ##ek
met ##all
t ##ide
ch ##and
coun ##sel
govern ##or
##um ##an
fl ##an
mex ##ico
orle ##ans
impro ##ve
wel ##comed
ad ##en
##ist ##ent
expl ##ains
ab ##dom
deb ##t
mart ##y
t ##ies
qu ##ir
cra ##ig
2 ##2
fight ##er
##r ##um
##ith ##a
ron ##an
sl ##ips
adm ##ired
fl ##ies
sever ##e
murder ##er
l ##ush
par ##aly
earn ##est
i ##re
pl ##ague
disco ##very
cad ##en
d ##ab
perf ##ume
so ##da
out ##ward
tight ##en
abig ##ail
##sh ##ield
r ##aging
br ##ood
hair ##s
the ##o
flin ##ch
rel ##atively
abs ##ent
##m ##itted
har ##v
camp ##a
us ##es
pat ##io
fl ##irt
n ##aught
bubb ##a
as ##ce
##the ##less
kind ##ness
inf ##in
uncomfort ##ably
h ##ound
accom ##mod
o ##ath
head ##lights
never ##theless
conso ##le
acade ##my
##b ##a
##o ##ken
ro ##ast
br ##im
arrange ##ment
lew ##is
un ##le
honest ##y
##op ##ed
jan ##et
organ ##ization
##b ##orn
determ ##ine
##ony ##m
ce ##ment
m ##ick
succeed ##ed
cheer ##ful
b ##ert
con ##j
encou ##ra
cl ##ipped
des ##ired
res ##umed
sh ##ir
##in ##ar
ult ##imate
##h ##l
se ##ld
ty ##r
mot ##iv
g ##room
gas ##ps
fu ##cked
bur ##nt
re ##ct
eng ##ines
ali ##ens
uncont ##roll
b ##anged
l ##inda
##um ##my
circ ##ular
und ##o
##b ##ones
##al ##t
ris ##es
weal ##thy
al ##f
n ##ancy
incl ##ude
e ##lf
pier ##re
glim ##ps
rob ##es
##re ##et
nik ##ki
etern ##al
leth ##al
stephan ##ie
ha ##iley
div ##ine
el ##im
##ot ##ch
le ##ver
acc ##ustomed
yell ##s
lux ##ury
sor ##cer
phr ##ase
aust ##in
t ##avi
ch ##art
moan ##ing
##m ##ost
me ##als
sim ##pl
thrust ##ing
##r ##us
int ##act
##p ##he
cell ##ar
b ##orrow
tom ##b
beam ##s
j ##ag
restr ##aint
##ft ##ed
sc ##re
fail ##ing
scrat ##ching
wind ##shield
has ##nt
comm ##ission
hunt ##ed
hal ##ted
b ##id
fet ##ch
war ##ily
spl ##in
indic ##ating
ray ##s
comput ##ers
belong ##s
g ##il
##ar ##n
##or ##ld
##o ##ch
b ##umps
p ##ang
carm ##ine
##au ##gh
ac ##id
displ ##ayed
exam ##ining
ext ##ract
after ##wards
conf ##ession
good ##s
slow ##ing
th ##y
vis ##ual
n ##ation
mo ##de
red ##d
concl ##uded
d ##ent
ind ##ign
linc ##ol
su ##e
ap ##ologet
store ##s
over ##ly
sl ##it
intrig ##ued
compet ##ition
den ##nis
encou ##raged
d ##ive
inh ##ab
act ##ive
estab ##lish
##ag ##n
l ##ining
unw ##illing
or ##b
kidna ##pped
b ##ind
f ##iance
plu ##cked
ag ##on
lif ##eless
jol ##t
correct ##ly
un ##ison
##ik ##es
mess ##enger
grow ##ling
consci ##ence
l ##ass
purch ##ased
ru ##ins
spl ##ashed
c ##ind
pl ##um
co ##pper
b ##ible
net ##work
gro ##cery
stair ##well
gras ##ping
cough ##ing
play ##ful
consp ##ir
throw ##s
coo ##ked
eld ##ers
hand ##y
ch ##amb
sweet ##ly
##c ##al
##ry ##n
kind ##ly
##or ##ters
att ##ic
surg ##ery
coff ##in
th ##ief
exp ##osing
ban ##ks
desce ##nd
cor ##rupt
tast ##ing
l ##air
en ##h
##m ##pt
fr ##ied
pr ##ow
##att ##le
ce ##ased
non ##ethe
claim ##ing
no ##elle
nice ##ly
tro ##y
2 ##5
pattern ##s
sw ##amp
esc ##orted
imp ##lic
nonethe ##less
sw ##ive
##bo ##ards
fort ##ress
##b ##ut
##au ##x
##ou ##ched
fav ##our
le ##mon
oun ##ce
un ##set
nur ##ses
atl ##ant
doc ##uments
to ##ys
crad ##led
##om ##an
arrange ##ments
sn ##aps
er ##ra
ro ##x
flir ##ting
gl ##ove
disc ##ip
har ##ley
disag ##ree
##ud ##ged
polit ##ics
l ##ena
mo ##ss
b ##ared
war ##lord
lay ##ers
##pp ##led
over ##night
deep ##ened
ra ##f
bell ##s
t ##ant
play ##s
##ra ##el
metall ##ic
photograph ##s
mo ##l
slo ##ane
##e ##nding
inv ##ent
m ##ace
m ##ush
forb ##idden
g ##ord
flo ##at
par ##ad
##ay ##er
regret ##ted
nu ##zz
as ##her
f ##let
sent ##in
strate ##gy
ve ##il
har ##bor
the ##e
ret ##ire
clen ##ching
sco ##oted
cont ##est
mu ##ddy
bul ##k
inqu ##is
co ##ins
shimm ##ering
gr ##am
co ##ke
##ov ##an
head ##quarters
charac ##ters
##v ##o
co ##ord
phil ##ip
ben ##n
##u ##ated
lincol ##n
la ##unch
accompl ##ish
cush ##ion
##lo ##ad
out ##line
sat ##in
nat ##ive
sl ##ur
bang ##ing
destro ##ying
investig ##ate
2 ##4
tw ##ent
er ##otic
ir ##ish
art ##if
##h ##ire
wra ##ps
ev ##ident
tr ##acing
pe ##y
qu ##in
ne ##ared
##r ##ons
sil ##hou
un ##ner
effect ##ive
we ##bs
play ##fully
produ ##ce
barg ##ain
jaw ##s
d ##ur
sl ##apping
pu ##pp
indic ##ation
##in ##er
wo ##ken
path ##s
cond ##itions
deser ##ves
cor ##a
a ##y
mar ##king
ind ##iff
ha ##ck
##erg ##us
b ##itten
##as ##ions
iv ##an
simult ##aneously
hud ##son
gle ##am
re ##app
##cher ##s
resp ##ected
##ac ##ious
pul ##sing
hea ##ving
need ##les
stre ##aked
gaz ##es
##f ##ront
sh ##aw
phot ##ogra
certain ##ty
pad ##ded
rum ##m
chat ##ting
##at ##ch
gr ##ain
##o ##cc
po ##et
urg ##ency
##le ##ton
overhe ##ard
vib ##r
wy ##att
loos ##ened
pract ##iced
ut ##tered
rece ##iver
pro ##ced
refle ##x
fid ##get
compl ##aint
campa ##ign
ob ##ed
pic ##nic
##iv ##an
tab ##itha
adm ##ire
anx ##iously
cl ##u
rece ##iving
##aul ##ted
admin ##ist
v ##ince
hand ##c
o ##sc
re ##id
##ri ##a
coun ##tered
##0 ##s
un ##mist
fold ##er
ret ##ired
tradition ##al
st ##umble
car ##rie
sn ##akes
sque ##aled
mascul ##ine
pre ##m
ref ##uge
cool ##er
ez ##io
engage ##ment
man ##ners
philos ##oph
b ##ax
comp ##art
exec ##ut
conf ##lict
dri ##ves
chuck ##les
visit ##or
term ##inal
tow ##ers
port ##ra
venge ##ance
emotion ##ally
m ##aze
str ##add
oppon ##ent
burn ##ett
p ##umped
fr ##ig
ca ##fe
bitter ##ly
geor ##gie
sa ##uce
t ##s
o ##ven
re ##ins
conce ##aled
prompt ##ly
adv ##ised
caf ##eter
stra ##ps
ann ##oun
co ##ax
o ##c
hor ##ns
fight ##s
2 ##1
ly ##nn
swip ##ed
do ##yle
challen ##ged
ret ##orted
unb ##ear
##wor ##ks
unset ##t
appe ##al
##as ##er
room ##mate
##w ##r
post ##ure
st ##amm
t ##ile
dar ##cy
##pr ##ints
##era ##ire
bund ##le
tem ##eraire
susp ##ended
whimp ##ered
lar ##a
a ##ub
p ##all
relig ##ion
fall ##on
j ##ett
##sh ##irt
hen ##ri
anticip ##ated
##ah ##n
h ##ush
##ch ##al
heal ##er
veron ##ica
br ##ist
k ##ait
develop ##ment
##ri ##gg
bar ##ry
cont ##rib
m ##am
##d ##ia
men ##acing
y ##ank
imp ##rison
transf ##ormed
text ##ed
b ##ait
p ##uck
batt ##les
flor ##ida
crow ##ds
warm ##ing
mild ##ly
sw ##elled
ep ##is
excited ##ly
draw ##ers
accompl ##ished
tour ##ists
claw ##ed
ra ##ked
as ##hes
h ##ushed
underw ##orld
cafeter ##ia
sh ##annon
cl ##ark
##l ##ene
team ##s
arou ##sed
##h ##ail
ann ##ab
pun ##ching
cand ##id
fat ##ig
bl ##amed
abdom ##en
guard ##ians
encoura ##ging
reg ##an
con ##tempt
un ##ne
bell ##owed
##b ##ra
ting ##ling
unb ##utton
wor ##ship
##che ##ll
gem ##ma
clar ##ity
inf ##ant
wal ##ter
ca ##ves
commun ##icate
ju ##ly
brace ##let
kill ##s
scient ##ists
v ##as
##ing ##es
##ap ##t
d ##ren
major ##ity
glo ##om
unse ##en
##nt ##ice
b ##ure
re ##un
disgu ##ise
##do ##or
tow ##ering
pres ##um
##m ##ans
way ##ne
don ##ovan
gre ##t
smash ##words
hel ##ena
##il ##st
##ig ##ner
perf ##ormed
mess ##ing
a ##ur
dart ##ing
car ##ly
lod ##ge
so ##bbed
##r ##il
at ##tended
ra ##e
fasc ##inating
tempt ##ation
eng ##ulf
gle ##amed
h ##ans
ter ##ry
thera ##py
gre ##n
air ##craft
sp ##here
stal ##king
##her ##s
br ##ooks
##het ##t
##ir ##ation
##b ##ted
passion ##ate
yawn ##ed
ador ##able
bec ##ca
v ##ain
d ##itch
scr ##ut
mo ##ans
chem ##ical
u ##gh
k ##ath
##l ##om
kend ##all
f ##ay
h ##ating
re ##aper
##m ##ph
grace ##ful
shield ##s
mut ##ter
##ul ##ars
artif ##act
kn ##ots
back ##up
red ##head
bal ##th
pr ##inted
fl ##our
prom ##ising
ste ##aming
ar ##tem
sol ##ar
##ut ##es
v ##amps
pe ##pper
hide ##ous
li ##la
hesit ##antly
congrat ##ulations
##o ##f
chamb ##ers
pun ##ct
tick ##ets
court ##ney
inqu ##ired
se ##attle
groan ##ing
t ##umbling
contro ##lling
cur ##ly
exquis ##ite
z ##ipper
et ##ched
mat ##es
mik ##hail
cas ##c
ch ##or
s ##ipping
clin ##ic
mes ##mer
prof ##ound
san ##ity
surve ##yed
open ##ly
##ist ##a
sub ##d
van ##essa
dim ##ension
##amb ##ling
o ##t
ver ##ity
dis ##or
danc ##er
so ##aking
lo ##ft
ver ##ge
dun ##ge
##sc ##ent
organ ##ized
spe ##c
deput ##y
sh ##attering
entertain ##ment
over ##d
all ##iance
we ##eping
liqu ##or
p ##au
ze ##us
up ##s
estab ##lished
res ##idence
l ##ac
e ##gy
cigaret ##tes
fl ##uff
six ##th
##co ##at
##g ##iving
con ##g
reg ##ain
coo ##p
lex ##ie
am ##os
tu ##cking
sandw ##ic
occ ##asions
unne ##cess
wal ##t
but ##ler
ide ##al
extraord ##inary
d ##aph
##y ##on
marry ##ing
fresh ##ly
main ##ly
sha ##wn
bour ##ne
end ##ure
accur ##ate
d ##ag
artem ##is
** ##**
skirt ##s
long ##ed
obe ##yed
house ##hold
##se ##ll
mill ##ie
ch ##im
vis ##ibly
opt ##im
r ##ou
in ##ched
cu ##pping
r ##aces
po ##ker
am ##using
tempt ##ing
m ##are
##he ##ll
##wor ##ld
d ##ing
fact ##ory
ex ##otic
diamond ##s
lau ##rel
law ##yers
snar ##l
##e ##enth
gener ##ation
sus ##annah
schedul ##ed
lim ##o
color ##ful
embr ##aced
##a ##ver
some ##place
cry ##pt
lim ##b
ad ##ol
su ##z
fu ##zzy
##i ##ah
persp ##ective
rem ##n
autom ##atic
ext ##ent
john ##son
egy ##pt
or ##ph
jack ##ie
m ##ig
lay ##ne
young ##est
re ##ub
##stand ##ing
m ##oo
s ##izz
summ ##on
per ##imeter
##idd ##ed
frown ##s
tr ##acked
r ##ape
##s ##is
sn ##uck
exasper ##ated
pick ##up
##ac ##ular
cra ##ved
jew ##els
ell ##en
exc ##uses
ne ##al
cult ##ure
contain ##er
princip ##al
e ##rik
priv ##ile
capt ##ive
per ##se
ken ##ned
wild ##er
wel ##coming
intern ##ational
caress ##ing
anch ##or
show ##ered
situ ##ations
author ##ities
d ##izz
yan ##king
ben ##ny
br ##am
heav ##ier
refer ##ence
sl ##ither
rock ##et
c ##ri
pe ##ak
nick ##n
sket ##ch
##st ##orm
trou ##bles
v ##ia
whist ##led
stro ##ll
##occ ##up
japan ##ese
bless ##ing
necess ##arily
i ##l
##in ##ations
s ##atell
incre ##ase
d ##ot
shri ##ek
##it ##ution
tra ##ged
war ##s
gl ##int
##es ##c
lat ##ter
shudd ##ering
non ##chal
compl ##aining
sne ##ered
reapp ##ear
tri ##ps
ad ##vert
leap ##ing
##em ##ber
bure ##au
ven ##om
impul ##se
re ##nder
##op ##ard
g ##an
w ##rigg
##p ##iece
maintain ##ed
cost ##ume
res ##igned
rever ##se
musc ##led
bru ##ce
claud ##ia
we ##e
har ##ness
parad ##ise
f ##ergus
j ##ut
te ##e
fill ##s
bl ##ed
ch ##ir
loc ##ate
brief ##case
sw ##at
frequ ##ently
sympat ##hetic
##xt ##on
frank ##ie
##r ##un
grim ##ace
co ##ated
lou ##ng
electron ##ic
perp ##et
and ##erson
##oo ##oo
gu ##id
b ##ian
hesit ##ant
fle ##xed
witness ##es
har ##ris
mit ##chell
a ##ce
r ##otten
alex ##andra
sl ##ower
man ##ic
send ##s
man ##or
cr ##imes
cat ##al
daph ##ne
account ##s
reub ##en
ang ##uish
pop ##s
##k ##ers
glist ##ening
##g ##ara
brand ##y
employ ##ee
mack ##enzie
conf ##using
l ##ash
##arr ##ing
vom ##it
##se ##ction
wh ##ilst
er ##r
m ##au
mar ##gu
fly ##nn
gran ##ny
no ##v
beh ##ave
bar ##on
mich ##a
burst ##ing
americ ##ans
##s ##en
gigg ##les
ris ##en
scar ##red
st ##em
interest ##s
mis ##under
unc ##on
b ##usted
t ##id
rel ##ative
ward ##robe
box ##ers
##lo ##d
reb ##u
adm ##iring
v ##ines
gr ##ows
act ##s
prev ##iously
lo ##omed
claim ##s
che ##ating
pol ##gara
##urn ##ed
ab ##du
##ri ##al
ev ##ans
nest ##led
chat ##ter
kenned ##y
disc ##reet
mod ##est
kno ##x
ro ##bbie
mir ##a
##ad ##el
gle ##e
altern ##ative
p ##anc
aud ##ible
pat ##ting
comp ##osure
sign ##ature
flut ##ter
sele ##cted
tw ##itching
int ##ric
reg ##ina
##ul ##s
cat ##tle
ten ##nis
c ##ot
##st ##ers
uncertain ##ty
em ##an
el ##ves
nause ##a
mom ##ma
cal ##ming
b ##ass
doub ##led
man ##if
g ##ag
##ay ##ne
##o ##x
flut ##tering
remark ##able
adop ##ted
ly ##dia
##op ##ing
man ##ny
spr ##inted
carol ##ina
f ##iled
blank ##ly
surve ##ill
dav ##is
ken ##ny
wr ##ith
ind ##ia
beat ##s
##u ##ished
ecst ##asy
g ##aunt
supposed ##ly
##ol ##ai
alex ##is
mar ##ina
compar ##ison
bu ##gs
depart ##ure
app ##ly
##ker ##chief
suggest ##ing
revel ##ation
##ous ##ed
al ##armed
hand ##kerchief
col ##by
py ##ram
pup ##ils
band ##age
par ##lor
v ##iper
##ch ##ild
gl ##am
bl ##an
beh ##alf
repe ##ating
ke ##ith
out ##come
surveill ##ance
cor ##r
t ##ren
scient ##ist
##im ##ated
sarc ##astically
potato ##es
vik ##tor
d ##ak
purs ##uit
norm ##an
k ##am
##uck ##s
##ount ##ed
spl ##ash
aim ##ing
jam ##med
##m ##ont
wink ##ler
bre ##nn
aston ##ishment
quiver ##ing
v ##ine
basket ##ball
found ##ation
fig ##uring
tre ##mend
door ##bell
prot ##ru
##cri ##pt
interrupt ##ing
ran ##ks
eyel ##ashes
be ##ars
where ##s
fin ##est
str ##ides
ble ##ak
daw ##son
re ##ese
ro ##bb
w ##ives
tr ##acy
flat ##ly
help ##lessly
##a ##e
##am ##on
contact ##s
apolog ##ized
an ##onym
connect ##ions
##r ##ise
ab ##use
lu ##gg
produ ##ct
gran ##ite
##ank ##y
gl ##ob
perman ##ently
ang ##led
suspic ##ions
inst ##ance
##n ##ar
joy ##ah
g ##or
##est ##ic
bl ##ushing
cold ##ly
d ##ict
no ##lan
wigg ##led
butterf ##lies
cou ##ples
##ced ##es
##an ##ity
t ##icked
prophe ##cy
arch ##it
custom ##er
lin ##en
cook ##ie
pil ##es
francis ##co
aggress ##ive
invol ##unt
n ##ape
sw ##ings
##so ##ever
oct ##o
sa ##gged
n ##iece
georg ##ia
k ##ade
ar ##k
snugg ##led
pun ##ished
gul ##p
##oo ##king
grand ##d
re ##he
moist ##ure
acqu ##aint
##z ##es
le ##f
how ##led
bar ##king
ribb ##on
##um ##in
unf ##air
hum ##med
lugg ##age
exh ##ib
archit ##ect
e ##ug
so ##lo
jac ##qu
instr ##ument
awak ##ened
speech ##less
dem ##et
ras ##ped
dim ##ly
gabri ##elle
cris ##is
scra ##p
st ##ored
r ##umbling
un ##sp
f ##idd
octo ##ber
r ##ash
refer ##red
bo ##ards
frank ##lin
any ##a
dim ##in
##bur ##g
we ##ars
crit ##ical
##v ##i
co ##ats
##ook ##ie
priest ##s
h ##ord
al ##ison
sick ##ness
##agg ##ers
pey ##ton
##y ##ou
dec ##ade
accept ##ance
magaz ##ines
##oth ##y
band ##s
spect ##acular
how ##l
cru ##ise
th ##u
bodygu ##ard
ult ##imately
##y ##d
flo ##pped
pant ##ed
e ##b
tw ##il
reb ##ell
celebr ##ation
bould ##er
t ##ina
f ##itted
deme ##anor
le ##gged
pl ##ac
##ien ##ne
hand ##ling
car ##olyn
greg ##ory
ag ##itated
v ##ick
sib ##lings
##at ##ore
##m ##at
ginger ##ly
spirit ##ual
eag ##le
compart ##ment
bru ##ise
ob ##tain
grandp ##arent
##en ##cies
mon ##key
ill ##ness
une ##as
nan ##ny
##ett ##a
den ##ny
2 ##3
appet ##ite
spr ##ings
sk ##im
char ##ging
pir ##ate
un ##z
mouth ##ful
apr ##on
sha ##ved
not ##ing
n ##am
##h ##un
resc ##ued
##br ##ush
concent ##rating
di ##et
cel ##ia
tri ##gg
cre ##ation
til ##ting
micro ##phone
##p ##ut
lur ##king
scra ##ping
col ##ton
bron ##ze
respond ##ing
ell ##is
disc ##arded
ward ##en
j ##in
val ##erie
wheel ##ed
sub ##ur
esc ##al
exec ##ution
o ##ri
rot ##ting
rum ##or
tre ##as
bo ##iling
m ##ull
fr ##action
##og ##ue
court ##esy
pus ##sy
##en ##ne
##ass ##ed
wom ##ans
tra ##ils
flet ##cher
commer ##cial
appreci ##ation
great ##ly
b ##aff
gro ##in
the ##at
j ##ell
stamm ##ered
fe ##b
shadow ##y
g ##is
ele ##ments
purp ##oses
supp ##orted
conce ##al
shuff ##ling
##l ##ong
cock ##y
##ain ##a
threat ##en
depe ##nding
ripp ##led
pack ##s
stream ##ed
cl ##icking
scenar ##io
##old ##ing
ja ##ime
l ##amps
whir ##l
command ##s
blaz ##e
u ##mb
sens ##ations
tow ##els
hy ##d
que ##ens
gu ##ild
vac ##ant
##w ##as
gro ##ve
##let ##te
bl ##uff
g ##aw
den ##ying
h ##ull
your ##selves
writh ##ing
g ##ill
s ##amp
##ne ##ys
virgin ##ia
exc ##ess
dread ##ful
chap ##el
leon ##ard
gen ##e
twil ##ight
what ##soever
##ol ##ic
comp ##osed
expl ##oring
can ##op
gl ##ided
co ##al
##h ##ift
hurried ##ly
wh ##ipping
how ##ling
cons ##er
##ha ##le
harm ##less
mar ##is
wren ##ched
can ##s
strang ##led
bar ##r
desire ##s
parano ##id
mut ##ed
no ##ve
tr ##an
hot ##ter
cust ##ody
sire ##n
swell ##ing
sire ##ns
tang ##le
##ath ##om
compre ##hend
j ##ed
control ##s
v ##ow
g ##erald
thro ##bbed
mort ##als
resem ##bled
ty ##ped
flatt ##ened
##c ##ar
empt ##ied
win ##ston
ta ##vern
isol ##ated
k ##ow
gl ##ued
ros ##ie
un ##in
se ##aring
##il ##ah
den ##ial
##ild ##a
be ##ver
##o ##h
indic ##ate
dod ##ge
cr ##on
daz ##z
go ##at
rep ##orters
surpr ##ises
cheek ##bones
rul ##ed
lu ##ce
salv ##atore
sc ##and
w ##ither
und ##ou
##le ##nd
sil ##as
##n ##ut
p ##airs
mo ##le
pers ##ons
mar ##ian
mar ##issa
lip ##stick
rey ##es
w ##oo
aff ##airs
fl ##icking
po ##em
undou ##bted
increasing ##ly
she ##ath
rem ##orse
gen ##etic
em ##erson
inc ##on
ting ##le
##i ##j
don ##na
mir ##rors
su ##m
bewild ##ered
treat ##ing
cons ##uming
cra ##ving
club ##s
telep ##ath
obs ##essed
elect ##rical
v ##ial
add ##ict
m ##ons
v ##ault
##es ##ter
tan ##ned
compan ##ies
kim ##ber
cr ##amped
##in ##als
cr ##ick
appro ##ve
cas ##ino
tent ##atively
dus ##k
margu ##er
##l ##on
##x ##on
wor ##m
ned ##ra
ste ##ak
dep ##ressed
od ##or
##i ##antly
st ##amped
reass ##ure
pro ##st
unmist ##akable
##p ##ent
cond ##uct
cl ##are
plas ##tered
k ##ad
unexpected ##ly
e ##g
how ##ard
suff ##icient
inspect ##or
vent ##ure
quick ##er
##w ##an
ch ##imed
cand ##ace
mead ##ow
commit ##ment
ir ##is
hel ##m
w ##ires
britt ##any
1 ##00
re ##jo
gro ##ans
g ##um
i ##i
fl ##aming
sel ##ena
marguer ##ite
p ##ige
cr ##am
##lic ##ted
land ##on
tast ##es
ch ##illed
cre ##aked
conven ##ient
wil ##son
app ##lic
tong ##ues
scen ##es
be ##ans
n ##uc
traged ##y
red ##uced
ball ##room
wid ##en
bern ##ard
##all ##e
bad ##ge
corps ##es
ca ##uses
##anc ##he
##str ##om
cuff ##s
inc ##ap
##g ##or
mut ##ual
j ##avier
dis ##d
makes ##hift
grandparent ##s
wr ##iter
hy ##per
pay ##ment
b ##ail
b ##ates
hard ##est
bom ##bs
disor ##ient
undoubted ##ly
bat ##tery
aston ##ished
v ##imes
the ##r
se ##et
he ##ars
t ##et
are ##na
ident ##ified
cl ##ues
##ass ##ing
shut ##tle
iv ##ory
obser ##vation
a ##ld
ha ##ley
stu ##bble
met ##ers
buck ##led
sl ##ashed
##on ##ic
c ##k
p ##ouch
her ##d
cel ##a
st ##inging
fre ##ck
eve ##lyn
bat ##hed
harsh ##ly
v ##ice
island ##s
sof ##ter
do ##in
##m ##aster
balth ##azar
##r ##ice
smo ##ld
re ##nd
jo ##gged
hu ##gs
unbelie ##vable
le ##nd
rid ##er
smear ##ed
comm ##itt
holly ##wood
st ##atic
sad ##d
##jam ##as
tun ##ic
butterf ##ly
av ##al
stiff ##ly
brian ##na
##ah ##l
stre ##ak
##l ##est
cond ##em
del ##ilah
forg ##iveness
oper ##ations
tw ##ig
re ##h
experien ##ces
j ##asper
sm ##other
##ig ##o
class ##ic
di ##ary
mat ##ches
##i ##at
##ens ##ively
cou ##p
strong ##est
clim ##ax
admir ##al
revol ##ution
sp ##a
back ##side
des ##igner
comm ##otion
##iqu ##es
##n ##et
sh ##ards
hood ##ed
pin ##ning
announce ##ment
co ##co
rad ##ar
##ink ##les
cap ##acity
tender ##ly
gener ##ations
##ic ##ians
greed ##y
und ##ers
##st ##ream
suff ##oc
spark ##led
scarce ##ly
seduct ##ive
p ##iv
import ##antly
subject ##s
j ##ury
ris ##ked
clut ##ch
transfer ##red
##ff ##e
part ##ing
##ary ##n
p ##aces
man ##aging
waist ##band
cap ##e
##go ##ing
clen ##ch
ch ##illy
omin ##ous
small ##est
##our ##ed
school ##s
am ##u
vib ##rated
blaz ##ed
sl ##ut
fix ##ing
sweat ##shirt
narrow ##ing
must ##er
o ##ly
we ##ed
tom ##as
gn ##aw
lit ##tered
shel ##by
##occup ##ied
po ##ised
sub ##c
neg ##le
grow ##th
cr ##ude
work ##er
brenn ##an
meas ##ured
r ##iot
th ##umping
would ##ve
lo ##la
##ort ##ion
ref ##res
cross ##es
pol ##icy
leg ##ion
corrid ##ors
exter ##ior
concer ##t
his ##sing
##it ##ious
record ##ing
we ##pt
sk ##ies
guard ##ing
ab ##bey
end ##elle
leg ##it
keep ##er
per ##ce
gest ##ures
al ##c
cl ##int
mor ##ris
ang ##les
bal ##anced
cela ##ena
th ##ie
record ##ed
un ##natural
cont ##aining
bab ##ys
j ##ai
text ##s
surviv ##ors
sept ##ember
water ##fall
subst ##ance
k ##ier
cur ##ran
dis ##cer
hard ##y
##cl ##oth
prior ##ity
v ##augh
dren ##ched
ro ##ss
blind ##ly
dra ##ft
d ##aggers
hall ##uc
cy ##cle
acc ##using
supp ##l
inf ##er
sim ##one
long ##est
##c ##s
got ##h
##bb ##les
read ##er
count ##s
overs ##ized
naught ##y
command ##ing
reck ##less
##wn ##y
ble ##nd
##i ##ors
luc ##ia
nuc ##le
ver ##t
kill ##ers
ster ##ling
bright ##ened
unbear ##able
sk ##illed
oly ##mp
##bur ##st
mechan ##ical
pul ##sed
ch ##ast
gray ##son
##t ##aking
bor ##rowed
bo ##il
spo ##iled
speak ##ers
bry ##an
##ed ##ly
##h ##u
photogra ##pher
##st ##ep
pa ##ige
interf ##ere
n ##un
reg ##ained
discon ##n
##st ##an
scree ##ched
##k ##no
##bre ##ak
mand ##y
d ##re
##u ##ation
po ##ster
bur ##ying
suit ##able
sent ##iment
dal ##inar
ab ##ra
tr ##aces
def ##ined
h ##orm
tempor ##arily
pee ##king
veget ##ables
t ##ier
independ ##ent
y ##ield
gret ##chen
##bo ##at
##b ##urn
sche ##me
bro ##ck
col ##um
hurry ##ing
dangerous ##ly
river ##s
symbol ##s
cann ##on
oc ##lock
prov ##iding
m ##arth
ly ##n
arch ##ie
##w ##est
th ##al
##ic ##ity
marsh ##al
f ##its
##ed ##ge
ab ##ack
mon ##a
pand ##ora
sandwic ##hes
ne ##ll
##ric ##s
angel ##a
squir ##med
recom ##mend
sho ##ots
ros ##a
disd ##ain
vis ##its
ruth ##less
v ##owed
rel ##atives
gr ##ind
mis ##chie
lo ##oming
glad ##ly
support ##ing
bitter ##ness
bubb ##les
sp ##ared
pro ##se
murd ##ers
scient ##ific
mischie ##vous
beh ##a
blind ##ed
b ##asha
thrust ##s
dawn ##ed
le ##is
k ##l
l ##ids
sun ##rise
n ##az
##um ##m
w ##ag
scre ##ens
ple ##a
g ##aining
uniform ##s
plan ##es
check ##s
pat ##ches
kick ##s
las ##er
##at ##hing
teen ##agers
##ro ##id
ratt ##ling
deb ##ate
##un ##ning
chor ##us
##an ##se
target ##s
wond ##ers
l ##ure
##b ##ie
expl ##or
adjust ##ing
sight ##s
tw ##e
ant ##ique
ab ##e
eas ##ing
da ##im
##ous ##es
point ##less
air ##pl
sweet ##ness
demet ##ri
ve ##in
d ##ax
beaut ##ifully
peop ##les
creat ##ive
dism ##ay
z ##ev
attend ##ing
heart ##h
##ig ##ning
hall ##ow
dis ##in
mar ##ching
pro ##x
grow ##ls
scru ##bbed
end ##ured
art ##s
har ##rison
l ##is
gal ##en
med ##ium
al ##tered
##ma ##id
##m ##ade
str ##ick
sp ##i
##ps ##on
moment ##um
jol ##ted
awa ##iting
conv ##iction
su ##nd
reb ##el
##it ##ter
good ##night
t ##art
t ##its
##che ##ss
fer ##al
sc ##ales
pl ##ump
sarc ##astic
care ##less
th ##umped
sh ##itty
bedroom ##s
let ##o
post ##ed
di ##ver
mor ##al
tre ##acher
sho ##vel
warm ##ly
val ##er
div ##ided
empt ##iness
presum ##ably
gal ##ax
be ##ads
b ##ot
c ##able
sk ##i
diss ##ip
##az ##a
less ##er
che ##mist
mer ##cedes
gord ##on
##st ##ein
rick ##y
##w ##al
leis ##ure
se ##as
##ers ##ed
deep ##est
##ud ##ging
collect ##ing
wry ##ly
y ##up
sl ##acks
cra ##z
fed ##eral
exp ##anse
deaf ##ening
kel ##sey
rand ##y
pl ##a
b ##inding
ur ##ging
ant ##i
d ##ill
rehe ##ars
t ##ents
gun ##fire
exagger ##ated
appe ##aling
unsp ##oken
accom ##p
sl ##ab
mar ##ine
squ ##inting
hon ##ored
thirst ##y
##im ##er
##w ##yl
list ##ed
reco ##very
sand ##als
door ##kno
ez ##ra
d ##urn
fore ##arms
afric ##a
par ##all
produ ##ction
draw ##led
car ##ries
du ##chess
annab ##elle
##t ##in
be ##aming
rear ##view
tam ##my
hur ##led
tr ##im
w ##ince
##om ##en
prop ##osal
grac ##ie
re ##vers
tal ##ents
sque ##aked
pred ##ator
mon ##it
appl ##ause
vo ##d
##ik ##o
to ##pped
att ##ent
churn ##ing
disappear ##ance
mother ##f
inf ##uri
res ##ur
contact ##ed
who ##d
ben ##jam
depart ##ed
fab ##ulous
i ##p
r ##ico
hang ##s
pu ##ddle
epis ##ode
s ##ample
aust ##ral
but ##ch
rif ##les
c ##aps
plain ##ly
imm ##une
5 ##0
to ##l
dod ##ged
cand ##i
c ##aine
sa ##iling
##nt ##h
v ##a
ang ##us
pe ##an
r ##ice
w ##ad
st ##ale
res ##ign
own ##s
ele ##ph
fasc ##ination
##w ##yn
lon ##el
w ##ist
angel ##es
remn ##ants
doug ##las
stif ##led
ar ##ching
up ##wards
de ##w
soft ##ness
shall ##an
satisf ##y
ponder ##ed
buck ##le
ev ##ol
challen ##ging
paw ##s
g ##erm
##e ##ys
to ##ns
re ##apers
scramb ##ling
fair ##ies
dip ##lom
dign ##ity
tr ##amp
shr ##ink
canop ##y
r ##ena
##gg ##s
person ##nel
bat ##hing
all ##ies
fat ##al
brad ##ley
##ct ##ures
##ick ##s
tor ##ches
##it ##ively
li ##bby
prim ##ary
resol ##ved
c ##yl
shadow ##hun
clust ##er
cons ##ult
consider ##able
stri ##kes
chuck ##ling
host ##ile
jan ##uary
tr ##ance
wait ##s
st ##ur
shad ##owed
##ri ##et
dis ##ple
mall ##ory
j ##as
sp ##lend
broad ##cast
ed ##ition
plo ##pped
satell ##ite
che ##f
cer ##t
fear ##ful
contin ##ent
benn ##ett
accomp ##any
it ##aly
re ##jected
de ##ed
fal ##tered
d ##otted
cup ##board
l ##oth
apolog ##ies
m ##un
##h ##ill
##au ##c
f ##isted
twent ##ies
##f ##old
tal ##ented
assemb ##led
h ##ust
sof ##ie
l ##ashed
##at ##i
sm ##ar
som ##ber
purs ##ue
##ph ##ic
fren ##zy
possess ##ive
per ##ple
cur ##ses
worth ##less
re ##ly
sa ##pp
##ud ##es
wid ##ening
v ##et
comp ##are
##ir ##y
dar ##ren
pra ##ise
b ##ounce
c ##ed
##u ##ously
##it ##z
not ##hin
but ##cher
far ##mer
mar ##vel
che ##ered
den ##ise
cheer ##fully
##r ##ings
lou ##ise
coll ##ins
stat ##ues
sick ##ening
bo ##iled
##id ##dy
t ##ul
stand ##ards
it ##ch
exp ##ed
lab ##el
sl ##iver
##uff ##s
belong ##ings
##ph ##ones
we ##ndy
sa ##iled
black ##ened
ins ##ight
reass ##ured
vod ##ka
##es ##a
screw ##ing
##ro ##e
ins ##anity
appro ##ved
sing ##er
unnecess ##ary
##am ##ic
ph ##ant
wid ##ow
##o ##ly
s ##ane
st ##ations
ser ##ial
dev ##ices
##b ##our
wh ##ined
angel ##ica
pa ##jamas
l ##acked
g ##urg
ath ##let
##g ##age
gen ##ev
i ##c
she ##pher
br ##ushes
##no ##x
cam ##ps
tur ##key
ev ##apor
bet ##ty
plan ##ets
thanks ##giving
##he ##ld
count ##ries
skin ##ned
dad ##s
rever ##ber
o ##y
y ##og
admir ##ation
pres ##ents
##os ##is
colle ##agues
will ##ed
##r ##ina
bo ##bbed
straight ##ening
##l ##ines
sp ##itting
ir ##ony
dist ##ing
sh ##in
mus ##ical
vent ##ured
qu ##ant
stab ##les
he ##ed
mom ##s
ren ##ee
##v ##ol
can ##yon
##c ##ases
fare ##well
success ##fully
protect ##or
lat ##ch
pro ##ving
sniff ##ing
adop ##t
scow ##ling
##b ##ird
regular ##ly
well ##ed
imper ##ial
volunte ##ered
tremend ##ous
##i ##ots
impat ##ience
pron ##ounced
tre ##ad
radi ##ated
inv ##asion
obser ##ve
flood ##ing
res ##on
bre ##n
assass ##ins
##f ##inger
fac ##ial
##ie ##ve
##ens ##on
stre ##wn
sevent ##h
fool ##s
blind ##s
##or ##ous
fer ##ry
inse ##c
e ##sp
pro ##s
contr ##ary
l ##est
tr ##otted
comp ##elled
connect ##ing
doorkno ##b
psy ##cho
kn ##otted
pot ##ent
win ##cing
##oc ##r
imp ##ass
##v ##ations
vib ##rating
kar ##l
t ##asha
hmm ##m
r ##aining
copy ##right
ter ##min
##or ##ia
gu ##iding
tre ##k
up ##t
##ren ##ia
comfort ##ably
surv ##iving
ling ##er
shar ##on
cig ##ar
shr ##ill
humili ##ation
ch ##ained
warm ##er
ped ##est
d ##up
us ##hered
par ##ade
nucle ##ar
burst ##s
slipp ##ery
effect ##ively
iron ##ic
##ane ##ous
rul ##er
nove ##mber
meet ##s
spir ##al
dep ##ression
bo ##ast
##ob ##ile
vol ##can
acqu ##ired
##et ##ed
##ace ##y
sk ##immed
ash ##ton
n ##ay
##ust ##ered
emer ##ge
entertain ##ing
bik ##ini
k ##inc
dece ##mber
c ##unning
gl ##azed
near ##er
sylv ##ia
i ##ona
ch ##al
awa ##ited
ancest ##ors
t ##ink
sl ##aughter
benjam ##in
##____ ##____
accept ##able
pol ##ish
##g ##ard
env ##y
sab ##ine
##el ##ope
##gg ##ie
unf ##olded
soot ##he
ra ##id
satisf ##ying
cat ##cher
##**** ##****
th ##ri
el ##ite
div ##ision
stab ##bing
##umb ##ered
com ##r
en ##force
##ail ##ing
b ##aked
n ##as
differ ##ences
pub ##lished
tit ##an
d ##aunt
rub ##s
sh ##h
ess ##ential
##l ##ie
inter ##ven
gradu ##ated
bl ##ah
champ ##ion
nickn ##ame
rub ##ble
##l ##ife
bra ##kes
refle ##cting
t ##ah
war ##rant
##iz ##er
inter ##act
shru ##gging
##bed ##ded
dunge ##on
st ##ressed
art ##ific
pir ##ates
r ##ented
##in ##able
hand ##wr
we ##eds
walk ##way
view ##s
r ##aped
er ##ase
s ##ins
gloss ##y
##uck ##er
sl ##icing
s ##utton
dist ##rib
w ##ade
v ##it
wh ##oo
gl ##en
fe ##y
distract ##ing
confront ##ation
une ##ven
##im ##ity
sign ##aled
gar ##go
sp ##ook
demon ##st
glor ##ia
ph ##oe
fell ##ows
fr ##ail
ris ##ks
##j ##ack
transform ##ation
##an ##es
extend ##ing
##o ##k
##ak ##ers
adam ##s
ki ##ara
smo ##ked
intimid ##ating
che ##ss
son ##ia
st ##ry
inter ##jected
che ##ated
weak ##ened
s ##ass
iss ##ued
bul ##ging
##w ##ined
sky ##lar
husband ##s
portra ##it
##d ##ers
out ##ta
morning ##s
g ##ree
to ##ry
liz ##a
wea ##ving
fr ##aser
cond ##o
interrog ##ation
trick ##le
n ##ave
ratt ##le
board ##ing
l ##ull
m ##aps
po ##ll
key ##board
reck ##on
##ak ##i
lo ##ading
fleet ##ing
##e ##w
ch ##alk
ev ##ie
dev ##oted
une ##ase
##ett ##le
kinc ##aid
se ##eped
pract ##icing
expect ##ations
cheer ##le
##ant ##ial
l ##ave
v ##ance
law ##rence
glit ##tered
overl ##ooking
marth ##a
##rid ##an
trick ##led
##st ##en
pyram ##id
confirm ##ation
h ##unk
##pt ##ions
bud ##ge
osc ##ar
dev ##yn
##irt ##s
li ##ll
soph ##istic
spar ##ked
##le ##igh
resem ##bl
sens ##ible
wes ##ley
bra ##ith
l ##ud
##os ##aur
p ##ins
had ##es
nik ##olai
fantas ##ies
wra ##ith
er ##ror
deliber ##ate
su ##l
rever ##end
str ##iding
pointed ##ly
experien ##cing
durn ##ik
z ##ipped
explod ##ing
con ##rad
hom ##eless
fl ##own
colum ##ns
silver ##y
ni ##all
bolt ##s
el ##o
sentin ##el
4 ##5
persu ##ade
exasper ##ation
quiver ##ed
bre ##nda
reception ##ist
ann ##wyl
individual ##s
rent ##al
che ##ers
disappear ##s
intim ##acy
cl ##ing
##f ##ish
snat ##ch
strick ##en
vib ##rant
st ##acks
nic ##olas
cost ##s
scra ##pe
fast ##ened
##f ##ight
det ##er
rust ##ling
/ ##/
be ##ers
th ##ad
sw ##ig
##ab ##outs
budd ##ies
exp ##ose
col ##ony
gradu ##ation
##c ##les
do ##se
al ##er
##ub ##lic
na ##ive
committ ##ee
bac ##hel
des ##cent
pet ##ers
ha ##zy
instr ##uments
cush ##ions
hyster ##ical
di ##ving
##b ##es
##om ##ic
res ##ident
har ##old
##ru ##d
##e ##em
c ##ort
seld ##om
drum ##s
inse ##cts
fight ##ers
fulf ##ill
tom ##ato
ph ##ase
chemist ##ry
manage ##ment
restaur ##ants
dru ##gged
##any ##a
hum ##id
h ##ass
##as ##ia
ex ##ists
sever ##ed
ben ##ji
tick ##led
brick ##s
draw ##s
fl ##ap
se ##ph
mac ##con
gy ##ps
ded ##icated
brun ##ette
le ##ash
##h ##r
##be ##c
coll ##in
jer ##sey
rain ##bow
consider ##ation
adm ##ission
##l ##it
k ##u
pet ##ite
sin ##ister
cr ##umbling
##ac ##c
##ci ##ating
rus ##sell
##r ##ay
scur ##ried
under ##est
def ##enses
mo ##s
di ##pping
tour ##ist
mex ##ican
resembl ##ance
high ##ness
adm ##itting
age ##nda
##u ##x
d ##yn
phoe ##be
dec ##ides
mer ##r
confront ##ed
a ##qu
che ##l
dis ##rupt
be ##v
sad ##ie
speed ##ing
co ##zy
shiver ##s
##uf ##act
vac ##u
proced ##ure
my ##r
nipp ##les
or ##ch
straight ##en
sque ##ak
intru ##der
b ##ount
insp ##ection
few ##er
##av ##a
gre ##asy
dark ##ening
expect ##antly
all ##eg
sull ##en
pend ##ant
h ##inges
inc ##omp
lonel ##iness
puff ##ed
shimm ##ered
gregor ##i
tr ##unks
pl ##un
scarlet ##t
##re ##p
ne ##on
pin ##ch
contr ##ad
man ##ufact
prot ##oc
intell ##ect
bic ##eps
g ##el
we ##ep
##ct ##ic
su ##lt
pe ##w
pow ##ered
honey ##mo
solemn ##ly
##g ##ression
##z ##ar
sup ##reme
tender ##ness
rep ##ublic
protoc ##ol
pat ##ron
virt ##ually
stern ##ly
toler ##ate
sh ##im
bl ##at
sh ##roud
retreat ##ing
el ##vis
le ##y
battle ##field
bat ##ter
detail ##ed
dram ##atically
so ##c
accus ##ation
br ##ook
cr ##unch
19 ##8
attend ##ant
ac ##ute
##o ##ds
##ens ##ed
snar ##ling
soot ##hed
scot ##land
##do ##x
man ##h
cold ##er
do ##omed
sn ##ack
guns ##ling
h ##tt
##se ##a
tw ##ists
police ##man
##le ##en
##id ##ly
rid ##ers
arg ##uments
unlo ##ck
l ##ys
##ing ##ton
mad ##dox
mut ##ters
flee ##ing
gra ##ves
inter ##v
main ##ten
glo ##be
element ##al
table ##t
pat ##ri
##ri ##ers
##ic ##iently
fr ##ies
inst ##itute
in ##hale
gl ##iding
se ##mes
he ##nd
##n ##in
ste ##ele
e ##aves
pal ##ed
##re ##lla
r ##idd
scot ##ch
dr ##ill
grace ##fully
st ##ere
dr ##ed
##th ##or
demon ##str
mus ##k
m ##aker
##app ##rop
pe ##eling
loose ##ly
##um ##sy
hamm ##ering
v ##ale
crad ##ling
aim ##ee
black ##mail
##ic ##orn
cock ##tail
sad ##i
storm ##s
crack ##led
cr ##otch
inf ##ection
order ##ing
repres ##ented
fatig ##ue
b ##ash
r ##idden
bul ##b
cl ##umsy
pet ##ty
enc ##ir
v ##ag
##m ##un
##it ##ate
d ##ough
smo ##ky
envelop ##ed
sc ##ab
che ##at
understand ##s
pleas ##antly
en ##vision
th ##o
pack ##et
rich ##ards
pr ##ints
cor ##in
den ##ver
cind ##y
z ##ak
nur ##sing
arrog ##ance
intense ##ly
sp ##ade
bre ##w
p ##hen
eff ##icient
country ##side
h ##ul
cat ##hed
z ##ip
##k ##ar
he ##ath
beck ##oned
celest ##e
do ##om
smar ##ter
tob ##ias
gi ##ants
4 ##0
cur ##ving
b ##ully
vaugh ##n
supp ##ressed
lil ##ith
hast ##e
out ##right
##ang ##ular
sto ##cking
lun ##a
orn ##ate
lou ##isa
w ##ww
cons ##ol
sque ##al
rest ##room
imposs ##ibly
amu ##let
f ##uss
force ##fully
newsp ##apers
tent ##ative
l ##aken
n ##om
t ##icking
se ##w
unt ##ouched
da ##is
##ment ##ed
har ##vey
dex ##ter
read ##s
cla ##pping
mu ##nd
carp ##ath
forg ##iven
##r ##ance
po ##ke
att ##ach
wh ##ine
mour ##n
high ##light
##og ##en
pray ##ers
til ##es
corpor ##ate
##ro ##ad
citiz ##en
##g ##on
bl ##and
dr ##aining
v ##ane
##w ##ord
un ##its
oper ##ating
r ##ans
pen ##elope
w ##ig
clou ##ded
viol ##a
fort ##unate
pool ##s
snick ##ered
##ke ##ys
ver ##bal
defe ##nding
monst ##rous
brisk ##ly
ar ##oma
scrat ##ches
ev ##alle
relent ##less
e ##ra
insp ##ired
wear ##ily
s ##ift
sull ##ivan
honeymo ##on
mer ##it
attack ##er
ren ##na
cad ##ence
fluff ##y
ign ##ition
ge ##off
crack ##ling
##n ##i
##b ##ul
stre ##aks
reco ##vering
sp ##iders
cabin ##ets
kur ##t
##y ##r
gr ##ill
me ##nd
amb ##ass
dang ##led
kait ##lyn
hol ##ster
##qu ##in
##m ##und
in ##approp
even ##ly
sharp ##ened
child ##ish
pen ##is
succ ##umb
obs ##ession
ran ##n
stagg ##ering
band ##ages
##ys ##on
##ath ##on
bra ##id
##ross ##ed
brad ##en
un ##ra
u ##mm
##ist ##ics
civil ##ization
br ##ack
nathan ##iel
hallow ##een
un ##icorn
##head ##ed
ex ##ting
inward ##ly
ch ##unks
##br ##idge
r ##ut
appro ##x
sw ##er
##p ##hed
maneu ##ver
tra ##gic
follow ##ers
delic ##ately
con ##or
b ##isc
co ##d
sim ##m
br ##ink
##ot ##y
poison ##ed
associ ##ated
claw ##ing
face ##book
dar ##n
gradu ##ate
g ##oof
tr ##ot
##ru ##p
urg ##ently
merc ##en
saun ##tered
##b ##in
kir ##an
gra ##zed
dry ##ing
mat ##ing
los ##er
st ##im
pat ##rons
blo ##om
spi ##ked
rec ##l
card ##board
wiz ##ards
pip ##es
ky ##rian
constru ##cted
fr ##act
res ##idents
motion ##ing
un ##not
ir ##ration
##st ##age
jax ##on
terr ##ain
tran ##qu
sl ##ing
mir ##ac
ser ##pent
ed ##itor
smoot ##hing
t ##aryn
unc ##om
op ##h
sal ##ute
laz ##ily
tub ##es
##g ##own
haunt ##ing
l ##acy
liber ##ty
19 ##9
f ##athom
##row ##s
dar ##lin
sc ##ents
gig ##antic
br ##acing
res ##id
jer ##ks
##ins ##ley
init ##ially
crou ##ch
exp ##ressed
sin ##cer
par ##as
wheel ##chair
gr ##u
smold ##ering
somet ##hin
sal ##on
b ##rig
##ie ##lle
fuck ##in
transp ##arent
jer ##ich
intric ##ate
f ##isher
g ##iddy
still ##ness
echo ##es
o ##z
prox ##imity
exec ##uted
innoc ##ently
##c ##orn
weak ##er
ro ##ver
c ##ate
st ##acy
cl ##own
pre ##occupied
fo ##am
cal ##f
bod ##o
nic ##o
prevent ##ed
sub ##t
sail ##ors
mainten ##ance
feat ##ure
crim ##inals
sk ##idded
ghost ##ly
cliff ##s
seph ##renia
cl ##ara
kn ##it
mer ##ch
pure ##ly
pet ##als
blood ##s
mat ##ure
pur ##red
kay ##la
poet ##ry
be ##ld
scent ##ed
hit ##ched
##o ##bs
k ##an
##or ##an
re ##eling
co ##bb
j ##ur
pe ##ach
f ##ooled
##att ##an
##er ##ies
pr ##ud
id ##iots
f ##us
sl ##ash
coll ##ective
##es ##to
in ##tegr
fire ##works
ming ##led
##ay ##a
pl ##aster
dig ##ital
radi ##ating
real ##ise
as ##ph
stur ##dy
id ##ly
interp ##ret
semes ##ter
##as ##ms
loc ##als
fay ##e
r ##hea
det ##ached
ch ##op
door ##step
##ic ##he
nuzz ##led
incon ##ven
c ##ia
##f ##r
by ##ron
##d ##ro
##iz ##able
##uck ##y
panc ##akes
##l ##iness
lo ##an
sand ##ra
medic ##ation
spear ##s
super ##st
st ##amp
in ##ject
bar ##ren
horri ##bly
respond ##s
lave ##nder
mer ##lin
project ##s
sal ##ty
out ##burst
luc ##a
indust ##rial
strict ##ly
po ##ppy
europe ##an
p ##on
ris ##ky
d ##ots
val ##id
pun ##ches
night ##gown
absor ##b
r ##ival
ter ##esa
hamm ##ered
webs ##ite
v ##ile
into ##xic
cop ##ies
height ##s
down ##ed
prec ##aut
material ##s
##k ##irts
arm ##ies
breath ##lessly
cale ##nd
ha ##bits
pret ##t
thick ##er
un ##he
rob ##ots
oblig ##ed
sm ##ugg
co ##iled
##og ##ne
mad ##am
straw ##berry
encourage ##ment
no ##isy
##vers ##ion
str ##ung
amel ##ie
baff ##led
fl ##ustered
william ##s
gunsling ##er
le ##veled
past ##or
faith ##ful
##re ##m
prepar ##ation
mu ##zzle
mix ##ing
##ri ##x
te ##ens
ma ##am
s ##is
ma ##ia
inher ##ited
wet ##ness
cock ##pit
ree ##ce
thie ##ves
cent ##ered
reject ##ion
g ##ry
contempl ##ated
exp ##ense
horri ##fic
spr ##out
bri ##a
t ##ying
squ ##ared
bound ##aries
##c ##ake
##ce ##lyn
every ##day
restr ##ained
parall ##el
em ##bedded
kidna ##pping
gan ##sey
lor ##i
gl ##oved
ara ##b
sky ##ler
stream ##s
swir ##l
##v ##ie
dist ##aste
bene ##fits
ch ##is
sign ##als
indust ##ry
##ott ##ie
volunte ##er
engulf ##ed
perform ##ing
sincere ##ly
bur ##ger
hol ##t
sour ##ces
depe ##nded
rest ##s
reason ##ing
##ric ##ted
##u ##ate
wide ##ly
##ro ##c
##ask ##a
stalk ##er
##ons ##ciously
##est ##yle
prof ##it
##ir ##in
mil ##it
sol ##ved
m ##oth
al ##che
i ##ra
gen ##es
necess ##ity
her ##es
sp ##ikes
hair ##y
fest ##ival
##en ##ance
hor ##ace
react ##ions
fut ##ile
sne ##er
ca ##it
lou ##ie
und ##one
hu ##go
p ##as
diss ##olved
orph ##an
col ##ogne
ting ##led
##o ##es
apart ##ments
guid ##ance
mass ##age
##in ##is
be ##et
car ##ving
libr ##arian
man ##kind
d ##ahl
a ##uction
foot ##ing
outs ##kirts
atlant ##a
mini ##ature
breath ##taking
imag ##inary
pent ##house
t ##umble
##orm ##al
hoo ##ves
fa ##erie
l ##amb
##ap ##es
lo ##gs
defin ##ition
minim ##um
bo ##omed
che ##ering
lack ##ing
con ##ceded
k ##ah
apologet ##ic
cr ##ook
inf ##l
circ ##uit
inhab ##it
b ##ows
exper ##iments
exc ##ru
qu ##izz
whir ##ling
h ##ats
##ac ##ent
bre ##nt
slam ##s
collar ##bone
mirac ##ulous
ag ##gra
lat ##in
preser ##ve
##us ##al
she ##en
mon ##itors
tri ##o
w ##its
trib ##es
t ##ir
dest ##ined
ske ##let
jo ##celyn
19 ##7
barb ##ara
dis ##like
o ##uch
t ##ak
qu ##ent
##act ##or
incredulous ##ly
tyr ##ion
##ke ##l
##all ##ing
stupid ##ity
ess ##entially
contempl ##ating
anonym ##ous
comp ##ulsion
quick ##ened
cro ##aked
hall ##ways
sy ##ll
sneak ##ers
##f ##ar
##to ##s
view ##ing
k ##itty
b ##owing
mo ##ons
le ##m
spr ##ung
guar ##ante
clas ##p
ignor ##ant
pain ##s
prop ##osed
c ##d
sl ##umber
fu ##nds
loos ##en
artific ##ial
sp ##ied
excru ##ciating
##p ##a
unw ##anted
mon ##roe
mill ##enn
rene ##wed
f ##ished
new ##est
pop ##corn
ball ##oon
thera ##p
aly ##ssa
har ##low
stu ##nt
vig ##il
##os ##ity
t ##inted
se ##eping
tan ##ks
harv ##est
spl ##itting
tas ##ks
encl ##osed
ron ##nie
clar ##issa
r ##ita
fing ##ered
arri ##ves
##e ##ous
int ##r
det ##ected
tun ##ed
exc ##used
cons ##isted
shield ##ed
prim ##al
bubb ##ling
glimps ##ed
qu ##ilt
bo ##nds
cathed ##ral
##ore ##n
g ##ash
act ##or
##ock ##s
sn ##agged
disappro ##val
ju ##dy
##e ##es
truth ##fully
host ##age
jell ##y
g ##ull
don ##ald
spark ##le
immort ##ality
un ##im
per ##ipher
rand ##all
or ##che
aw ##fully
wa ##vered
sn ##ug
ser ##ene
lux ##ur
##w ##ill
she ##ridan
hous ##ed
wrest ##ling
sn ##aked
##av ##an
rest ##ored
sort ##ed
st ##yl
blur ##ry
sincer ##ity
##ic ##it
inf ##o
cryst ##als
desce ##nding
met ##aph
##che ##l
dis ##o
trans ##ition
trent ##on
m ##ul
def ##le
agree ##ing
wat ##ery
##lyn ##n
how ##s
scru ##b
##h ##op
sp ##ying
lay ##len
pr ##one
lif ##estyle
dani ##els
jerich ##o
thread ##s
ras ##p
m ##int
re ##ared
whist ##ling
##at ##ics
sh ##atter
concer ##ning
unnot ##iced
d ##ia
##i ##ago
jack ##s
inter ##cept
sil ##enced
supp ##ress
prim ##itive
sinc ##l
inv ##aded
sav ##oring
zach ##ary
galax ##y
po ##lly
pa ##wn
mc ##ke
fal ##con
subd ##ued
robert ##s
##al ##ia
sa ##re
br ##at
bow ##ls
c ##ater
ver ##d
w ##rought
weeke ##nds
p ##ots
##w ##oman
##ky ##rian
c ##ull
##o ##ons
ny ##kyrian
erra ##nd
w ##ins
weigh ##ing
micha ##els
abra ##ham
real ##izes
shell ##s
cron ##us
##m ##ind
cor ##on
gro ##cer
arr ##ay
sp ##uttered
dark ##ly
hed ##ge
gri ##ps
##oc ##ity
murm ##uring
ad ##ele
emer ##ging
reass ##urance
no ##el
over ##fl
cra ##zed
ignor ##ance
sm ##ashing
##l ##ah
ear ##rings
hold ##er
##st ##ate
communic ##ations
l ##ark
##ra ##h
investig ##ating
##ang ##led
barb ##ie
histor ##ical
##c ##ers
whe ##ez
spl ##ashing
lat ##ched
tattoo ##ed
##ix ##ed
sha ##un
my ##ra
crou ##ching
exha ##le
##z ##i
apprehens ##ion
##qu ##ate
involve ##ment
un ##read
boo ##ze
##d ##ream
##ess ##ions
cr ##ust
ad ##ored
bro ##dy
##gr ##own
tri ##ple
manip ##ulate
a ##insley
ins ##ulted
2 ##7
##ad ##ium
ne ##c
crad ##le
w ##retched
##amp ##oo
conser ##v
sc ##olded
rap ##t
##l ##son
an ##ita
sh ##ampoo
##f ##ol
b ##ak
wo ##ven
##i ##ate
mir ##r
stri ##ped
##ut ##ions
sa ##u
board ##ed
tw ##inge
##r ##idge
art ##icles
den ##im
a ##rian
devast ##ating
##it ##ating
spl ##ayed
kal ##ten
mush ##room
danc ##ers
mot ##ive
sincl ##air
##gh ##an
opport ##un
no ##ses
stair ##way
manh ##attan
##os ##h
bet ##hel
explos ##ive
he ##ating
ste ##ered
bound ##ed
separ ##ating
##en ##er
j ##ael
discer ##n
t ##attered
##h ##or
fl ##ur
un ##sc
sco ##ot
sh ##ard
rele ##ases
bian ##ca
##b ##eth
airpl ##ane
remote ##ly
subs ##ided
ste ##er
theres ##a
head ##board
clear ##er
dir ##k
b ##umping
mirr ##ored
pl ##ains
mer ##cer
inf ##ect
bount ##y
fe ##aring
att ##ire
par ##ch
stret ##ches
ripp ##ling
exh ##ilar
ripp ##le
dark ##est
bo ##s
ins ##ign
a ##ph
##f ##ect
her ##bs
ep ##ic
ser ##en
nervous ##ness
devast ##ated
b ##ats
c ##ack
kat ##y
cop ##e
perple ##xed
kne ##el
pl ##ush
remem ##bers
ball ##ed
bar ##ak
amb ##ush
chill ##s
philosoph ##y
r ##ud
id ##le
insist ##ent
dom ##en
brand ##t
##is ##ons
ju ##an
con ##vent
bry ##ce
irrit ##ating
paraly ##zed
sn ##oring
val ##ky
vib ##ration
cl ##ap
wr ##inkles
r ##immed
##g ##her
not ##ch
hum ##ble
house ##keeper
travel ##s
ind ##o
flav ##or
je ##ez
fil ##tered
spraw ##ling
com ##for
cre ##ased
stuff ##ing
twir ##led
res ##ume
mer ##chant
n ##ig
to ##ri
bren ##na
hero ##es
obser ##ving
swip ##e
f ##ert
ha ##il
r ##ained
##s ##ay
ag ##nes
ag ##rees
bo ##one
deal ##er
schol ##ar
##ir ##s
bre ##tt
fl ##apping
ev ##al
intens ##ified
##pr ##oof
app ##les
##at ##he
in ##gr
is ##rael
##ad ##ian
mark ##er
trem ##or
stry ##ker
mas ##ks
dis ##re
me ##ek
sp ##ies
inher ##it
ben ##ches
squeez ##es
overl ##ooked
indiff ##er
op ##era
conf ##idently
maid ##en
administ ##r
ex ##ert
foot ##age
en ##light
end ##ear
spr ##ayed
sophistic ##ated
van ##ish
run ##ner
bill ##ion
##per ##t
remain ##der
##b ##id
up ##coming
them ##e
inter ##section
sw ##an
day ##dream
k ##athy
pass ##port
grand ##son
##e ##ady
flo ##ck
dim ##med
sed ##uce
manif ##est
tr ##immed
where ##abouts
##ink ##y
ni ##bbled
b ##ile
app ##ra
consider ##ably
insp ##ected
bright ##ness
##m ##aking
brid ##get
char ##red
did ##n
w ##akes
ter ##ra
official ##s
situ ##ated
over ##se
tr ##ist
scr ##unched
##o ##ked
low ##ers
mate ##o
##ll ##i
form ##ation
doubt ##ful
j ##ug
gift ##ed
defin ##ite
remark ##ably
equ ##ipped
chat ##ted
##h ##ot
grand ##child
opp ##osed
holiday ##s
taunt ##ing
silhou ##ette
to ##rak
se ##ctions
chill ##ing
pad ##d
hord ##e
refle ##ct
terr ##ace
bud ##get
handc ##uffs
av ##i
dr ##ac
def ##l
##b ##ooks
fit ##z
squir ##m
plum ##met
pre ##acher
j ##ak
##ic ##ism
disco ##vering
bi ##ological
inapprop ##riate
##ed ##e
unst ##eady
r ##ushes
shield ##ing
enthusi ##astic
in ##e
plung ##ing
uncontroll ##ably
##j ##ust
soc ##cer
discip ##line
pige ##on
fr ##og
cr ##ate
nat ##asha
enh ##anced
emplo ##yed
novel ##s
sc ##oop
pe ##ep
dec ##ipher
ris ##king
design ##s
##ry ##ing
churn ##ed
v ##ase
steal ##th
ke ##ira
right ##eous
sy ##ring
chat ##tering
sc ##aring
hit ##ch
host ##ess
conv ##ention
##1 ##1
##ur ##o
intend ##ing
r ##io
##m ##ble
cons ##ume
go ##b
imp ##ending
mal ##ach
r ##ides
se ##ctor
##te ##enth
excl ##usive
frequ ##ent
fl ##ing
boo ##bs
2 ##8
st ##akes
straight ##er
even ##ings
b ##io
impro ##ved
##r ##ils
call ##er
chand ##el
grocer ##ies
##il ##ized
p ##ines
off ##ensive
mut ##e
ruff ##led
thr ##ong
captain ##s
dri ##p
skept ##ical
rep ##rodu
bin ##oc
h ##ilar
##t ##own
imprison ##ed
##s ##he
sl ##ot
ribb ##ons
clay ##ton
com ##a
ar ##isto
sapp ##hire
sed ##an
##ival ##ent
glim ##mer
##v ##ial
uneas ##ily
spe ##ck
haul ##ing
ari ##z
appoint ##ed
n ##im
enter ##pr
un ##mo
mas ##c
gun ##shot
mort ##imer
gl ##ide
##in ##ates
ter ##en
ray ##mond
lad ##en
sk ##it
mer ##ci
requ ##ires
mc ##g
##ar ##ia
wilder ##ness
not ##or
sw ##arm
ev ##ac
##g ##lass
vill ##a
ro ##am
inst ##alled
disp ##at
e ##er
reward ##ed
p ##oo
ca ##val
asph ##alt
2 ##6
star ##ved
vo ##y
vic ##inity
ho ##ver
##res ##ist
ha ##uk
clot ##hed
comfort ##ed
ow ##l
s ##ans
penet ##rated
f ##umbling
co ##ve
tw ##inkling
grunt ##s
aer ##on
ass ##es
ins ##erted
new ##t
cre ##ak
t ##idy
resent ##ment
dro ##ple
pred ##icted
jab ##bed
##b ##ro
chel ##sea
infin ##ite
investig ##ator
opin ##ions
st ##itches
bould ##ers
bl ##ues
resign ##ation
comfor ##ter
##ra ##p
frig ##id
##ou ##st
moment ##ary
h ##ose
do ##cks
##ph ##il
n ##ipped
te ##gan
agon ##izing
rebell ##ion
over ##power
fred ##er
loth ##aire
e ##book
fact ##or
signific ##ance
expand ##ed
execut ##ive
pill ##ars
dis ##he
effort ##lessly
diss ##ol
labor ##atory
mad ##d
anim ##ated
st ##adium
##ant ##on
##ower ##ing
##iet ##h
c ##ows
y ##ach
##il ##ton
sy ##mpt
purpose ##ly
emphas ##is
down ##right
19 ##6
man ##g
trigg ##ered
pat ##ric
tr ##aded
am ##ara
ll ##oy
st ##ump
##ve ##ling
per ##mitted
cy ##nth
##ar ##ic
det ##on
du ##cking
me ##ll
##et ##a
are ##s
cross ##bow
wa ##il
psych ##iat
gre ##ase
mas ##ked
con ##vey
subc ##onscious
pop ##e
inh ##aling
gl ##inted
wed ##ged
sl ##a
per ##ch
sa ##us
bo ##bbing
sink ##s
h ##ence
j ##azz
de ##bbie
ru ##bb
ambass ##ador
##g ##ir
##st ##ru
pred ##ic
sol ##itary
strate ##g
pean ##ut
ear ##ning
ill ##ust
rey ##nold
ridiculous ##ly
pos ##itively
frust ##rating
int ##u
ent ##it
sever ##ely
amazing ##ly
re ##ign
t ##ipping
pub ##l
mechan ##ism
sl ##aught
mad ##ly
prop ##het
aub ##urn
s ##essions
invol ##ving
calend ##ar
binoc ##ulars
st ##uttered
court ##room
daz ##e
stead ##ied
ariz ##ona
##pp ##ling
man ##iac
chr ##on
chant ##ing
bryn ##na
be ##an
t ##ails
cath ##olic
stri ##ps
sylv ##ie
##y ##an
cir ##cus
wren ##ching
l ##aps
war ##ner
sec ##re
vill ##ages
cr ##ows
power ##less
bon ##us
en ##for
bare ##foot
introdu ##ction
meth ##ods
wa ##iled
bro ##om
samp ##les
al ##arming
the ##ories
##it ##age
dim ##ples
##ron ##ia
##ip ##e
ske ##leton
##il ##ia
tr ##ading
##ut ##t
jo ##st
##ced ##e
##fer ##ence
l ##ain
surve ##y
ad ##e
##man ##n
passage ##way
k ##as
go ##gg
##op ##es
lore ##n
di ##ane
shrie ##king
##ien ##cy
conv ##ul
pro ##dded
rh ##od
batt ##ling
bad ##ass
west ##on
. ##-
##id ##ian
luci ##us
quent ##in
emb ##roid
##st ##ered
some ##ones
flaw ##less
suz ##anne
th ##irt
soph ##ronia
##el ##o
inc ##or
unmo ##ving
##amp ##ered
g ##ps
german ##y
inc ##ome
sport ##ing
surge ##on
dol ##ph
v ##on
hang ##ar
advent ##ures
schol ##arsh
thro ##b
ce ##ase
pen ##n
sh ##hh
lloy ##d
en ##raged
assess ##ment
qu ##ad
bra ##z
elev ##ators
nail ##ed
vacu ##um
##w ##ith
jo ##g
l ##ens
flight ##s
umb ##rella
cam ##ille
unread ##able
##un ##ches
color ##ado
gry ##ph
achie ##ved
quin ##lan
add ##iction
sa ##ff
##are ##s
min ##us
plant ##ing
2 ##9
dread ##ed
afric ##an
ne ##v
must ##ache
tr ##udged
cere ##al
scree ##ch
k ##ra
spo ##il
enforce ##ment
le ##ak
ing ##red
conspir ##acy
car ##to
ho ##pping
sid ##he
writ ##hed
n ##ations
s ##ie
slee ##ved
encir ##c
##u ##ps
##br ##id
reh ##ab
blink ##s
traum ##a
disin ##tegr
di ##agn
hur ##ric
er ##nie
langu ##ages
jay ##ne
trick ##y
scree ##ching
##ad ##ers
sim ##i
post ##s
enjoy ##ment
view ##ed
divor ##ced
##to ##ps
gau ##ge
th ##w
3 ##5
c ##au
##o ##i
##iver ##s
pill ##ar
tact ##ics
wink ##s
math ##ias
g ##ina
k ##ale
con ##gress
reappear ##ed
shepher ##d
ho ##d
ru ##ining
phant ##om
chann ##els
heaven ##ly
adv ##is
shy ##ly
where ##as
unbutton ##ed
should ##ered
arm ##chair
i ##ced
def ##iance
reco ##ll
collaps ##ing
roy ##ce
lef ##to
p ##elt
##ai ##ah
s ##ookie
an ##ast
nic ##er
leaders ##hip
t ##aps
per ##cept
breat ##hes
a ##ward
earth ##qu
ke ##ely
cle ##ars
ha ##mb
cons ##ent
coll ##ided
girlfriend ##s
re ##ah
fin ##ch
ref ##r
jeff ##erson
el ##aine
ab ##und
gr ##ump
##als ##ki
reser ##ve
respons ##ibilities
bri ##ggs
goddam ##ned
duff ##el
jo ##gging
a ##rose
sc ##ope
valky ##rie
##p ##ost
cram ##med
##he ##ast
grave ##yard
##it ##i
##are ##k
link ##s
assemb ##ly
bl ##u
unp ##red
ba ##iley
##is ##p
transl ##ated
##un ##ction
wa ##vy
regret ##s
terror ##ist
b ##ony
b ##ask
##is ##ms
ha ##lo
##im ##il
repl ##acing
relie ##ve
yel ##ped
over ##all
ass ##ail
##cil ##ess
techn ##ical
mck ##ay
mer ##ciless
fore ##finger
eld ##est
dod ##ging
am ##ar
htt ##p
mo ##cked
bet ##a
imp ##r
cong ##reg
wall ##ace
mont ##y
n ##ude
sa ##p
em ##ber
loc ##ations
decl ##ar
##g ##ate
any ##how
dep ##ri
genev ##ieve
##ack ##ing
##ha ##ven
be ##es
unpred ##ict
pe ##el
tend ##rils
year ##ning
fingert ##ip
cr ##ates
reb ##els
slipp ##ers
glob ##al
ty ##ping
hoarse ##ly
p ##ater
go ##ble
poor ##ly
scand ##al
##ac ##co
z ##oo
sat ##an
incap ##able
se ##er
cap ##it
shap ##esh
impul ##s
sh ##agg
sp ##ont
sk ##ipping
quiet ##er
##c ##at
domin ##ant
boo ##ked
blood ##ied
to ##ppled
sig ##ning
exam ##ination
ther ##m
mesmer ##ized
b ##ing
pl ##ag
bre ##nd
stri ##pping
f ##iling
##av ##ia
##ann ##ie
ja ##im
sid ##el
wh ##ining
cam ##ou
scare ##s
associ ##ate
horm ##ones
c ##inn
ma ##ur
reluct ##ance
g ##ad
##a ##ith
fr ##y
melo ##d
ca ##v
p ##ork
c ##inder
cons ##ort
suppl ##ied
camou ##fl
gr ##it
van ##illa
##r ##aine
cru ##iser
ron ##in
##a ##ven
pos ##ed
che ##y
cy ##n
ere ##ct
sole ##ly
irration ##al
eric ##a
mor ##g
##fr ##ame
med ##all
comp ##ens
v ##ows
can ##ce
expl ##ored
##head ##s
smir ##king
all ##ows
suspect ##s
rip ##e
kow ##alski
shred ##ded
pit ##cher
unz ##ipped
fl ##ann
ment ##or
arch ##way
jan ##ice
ele ##nd
trave ##lling
calcul ##ated
swive ##led
plun ##ge
##ous ##y
andrew ##s
prop ##ose
r ##aged
##ut ##ter
tex ##ting
analy ##sis
flan ##ked
not ##ices
decl ##ined
char ##ms
lod ##ged
assum ##ption
replace ##ment
under ##t
mir ##iam
impl ##ied
k ##ettle
ir ##resist
her ##itage
prom ##inent
engine ##ering
acquaint ##ance
sh ##ave
produ ##cts
thr ##ott
pro ##d
puff ##y
sele ##ction
reun ##ion
beat ##rice
##st ##ore
##ic ##able
intoxic ##ating
disconn ##ected
##ist ##ine
civil ##ian
wing ##ed
h ##ue
pre ##scri
dis ##char
spl ##attered
prepar ##ations
des ##ol
dra ##pes
inter ##com
glare ##s
tri ##pping
tob ##acco
obs ##ess
mund ##ane
tra ##ps
cream ##y
ve ##nd
r ##ak
qu ##en
t ##rop
##h ##ound
virg ##il
frag ##ments
feb ##ru
qu ##int
sam ##my
recogn ##izing
unle ##ashed
dou ##che
pra ##x
a ##ry
cru ##elt
tur ##mo
h ##ike
underw ##ater
##ier ##ra
stupid ##ly
domen ##ico
meaning ##less
tour ##n
bang ##s
##g ##om
box ##er
dazz ##ling
tier ##ney
fre ##t
thunder ##ed
pupp ##et
##m ##ith
unsett ##ling
act ##ress
complex ##ion
carr ##ot
ras ##py
be ##ep
##ans ##as
febru ##ary
##c ##ass
##as ##ive
##ur ##ous
ban ##ner
conf ##ined
ori ##ent
dill ##on
vill ##agers
slo ##ppy
##ens ##ions
k ##idd
##at ##is
explos ##ions
turmo ##il
en ##chant
glist ##ened
tal ##en
parch ##ment
##n ##as
unner ##ving
sick ##ly
##iv ##ated
h ##unch
##d ##rop
t ##aped
man ##f
ind ##ians
fav ##ors
s ##izes
per ##mit
protru ##ding
##ab ##led
wat ##ered
##u ##cing
##ist ##ing
invest ##ment
##s ##ie
domin ##ated
ha ##le
read ##ily
gr ##udging
corin ##ne
w ##i
mour ##ning
##het ##ically
h ##ooks
murder ##ous
##m ##aker
desp ##ised
grandd ##aughter
##t ##ale
beh ##old
sal ##iva
athlet ##ic
ha ##gg
thr ##ashing
sc ##iss
than ##king
four ##s
priv ##ately
involunt ##arily
ha ##g
amb ##rose
tr ##ump
al ##ight
fright ##en
comprom ##ise
ra ##ft
win ##ner
k ##ol
at ##he
coo ##lly
pal ##p
mot ##ives
roll ##er
pad ##s
sail ##or
grate ##fully
org ##ans
##ar ##o
be ##f
##te ##xt
inde ##c
cinn ##amon
##rie ##ve
can ##oe
por ##cel
amount ##s
con ##vert
ret ##ali
adv ##ise
gab ##by
mic ##key
sl ##ade
hard ##wood
pant ##ry
scra ##w
therap ##ist
ne ##lson
ab ##st
ma ##is
magn ##et
##ri ##el
sheep ##ishly
le ##igh
or ##bit
sec ##l
z ##ayne
##ov ##a
bo ##bbie
ser ##aph
gar ##lic
station ##ed
detect ##ives
t ##ac
sa ##ils
tap ##est
o ##val
##sp ##ond
hon ##our
camp ##ing
##h ##ink
soft ##en
ext ##ensive
russ ##ia
##ig ##ible
cr ##umb
nar ##c
##ound ##ing
##pp ##le
scr ##amble
unco ##vered
cl ##amp
priest ##ess
m ##ish
r ##ins
eer ##ily
##ac ##ia
te ##qu
##ins ##on
farm ##ers
f ##ib
equ ##ivalent
##inn ##ie
pan ##els
techn ##ique
goo ##g
e ##u
so ##ak
sl ##anted
quiet ##ed
aval ##on
wh ##ites
run ##e
scri ##bbled
##le ##ment
she ##ila
squat ##ted
am ##pl
alb ##um
porcel ##ain
st ##ains
cont ##ented
ass ##aulted
prec ##ision
troll ##s
every ##ones
expl ##o
obliv ##ion
art ##ists
h ##ier
w ##ick
the ##ft
de ##ke
cle ##ans
##sp ##ring
t ##ainted
ar ##nold
k ##et
##c ##key
mic ##row
gargo ##yle
qu ##ote
deliver ##ing
immort ##als
ar ##se
no ##va
ting ##ed
taunt ##ed
lo ##af
und ##en
gh ##ast
b ##idding
go ##sh
hard ##ness
inev ##it
de ##ft
honor ##able
rag ##s
ram ##sey
smir ##ks
beard ##ed
e ##ly
cr ##inge
dest ##ru
##ific ##ations
or ##de
off ##end
en ##ters
develop ##ing
neck ##s
aver ##ted
cynth ##ia
adm ##on
ro ##aming
cr ##ut
##st ##ones
##ver ##se
can ##al
inv ##ented
pro ##long
ret ##ort
fl ##ute
h ##ic
##don ##ald
bas ##in
k ##ai
##is ##l
reason ##ably
ro ##bbed
favour ##ite
sp ##ins
##us ##p
t ##ig
exp ##ans
per ##il
bou ##quet
att ##rib
tequ ##ila
li ##ons
char ##co
ign ##ited
intimid ##ated
sl ##ay
van ##ity
watch ##ful
ken ##zie
tent ##h
p ##ars
pe ##aks
recall ##ing
head ##y
##ately ##n
gre ##aves
luxur ##ious
swall ##ows
toss ##es
##ich ##an
cr ##unching
bul ##ge
unus ##ually
alf ##red
y ##uri
blast ##ing
eleph ##ant
ne ##phil
a ##pt
ro ##amed
court ##s
##f ##le
mind ##less
##og ##an
fer ##o
freck ##les
wip ##es
orche ##st
##en ##cing
##il ##ian
un ##rel
##i ##h
boo ##st
def ##ensively
cur ##s
vulner ##ability
fac ##ade
enthusi ##astically
inex ##pl
##im ##a
cooper ##ate
jill ##ian
e ##ph
p ##ans
##bo ##d
sol ##om
dev ##otion
c ##unt
bre ##ach
corre ##spond
ch ##ores
grave ##ly
ground ##ed
tele ##port
lege ##nds
meas ##ures
can ##ada
##ah ##a
john ##s
se ##m
##ff ##y
se ##ichan
so ##ared
##m ##itt
engine ##er
brood ##ing
d ##usted
end ##e
prec ##ar
pl ##es
er ##ased
cruelt ##y
p ##otion
ear ##lo
pay ##s
prin ##ces
je ##opard
quir ##ked
##st ##al
cre ##aking
sit ##es
l ##enses
illum ##inating
v ##eter
##l ##ana
lind ##sey
al ##icia
pot ##entially
blunt ##ly
##h ##all
sex ##ually
lit ##ter
forest ##s
##u ##ar
sele ##ct
se ##eds
bo ##nded
penet ##rating
ver ##a
##l ##ain
sy ##nd
ende ##av
##u ##cc
thread ##ed
tw ##inkle
##pr ##ot
har ##p
smack ##ing
par ##an
scen ##ery
bar ##ric
dev ##in
ly ##ssa
m ##m
app ##ar
del ##ayed
fl ##ailing
sw ##ooped
mum ##ble
c ##id
##ic ##ation
sh ##oo
ro ##oted
ne ##ur
wer ##es
regina ##ld
tat ##um
i ##z
th ##ong
be ##acon
##pl ##ay
rest ##ore
attack ##ers
cond ##u
pit ##iful
moo ##re
jo ##anna
tri ##angle
ch ##au
cl ##atter
pl ##ug
ru ##gged
scout ##s
ar ##d
mar ##ines
farm ##house
phen ##omen
business ##es
entry ##way
disre ##spect
gr ##id
arm ##ored
ac ##res
glass ##y
protest ##s
m ##op
bry ##son
handwr ##iting
ro ##sy
sil ##ken
sal ##vation
wh ##iff
blood ##ed
mis ##chief
strugg ##les
tick ##ling
##b ##acks
##ill ##ion
##lo ##cks
disorient ##ed
b ##aker
m ##ong
##e ##i
lim ##ped
vigor ##ously
retire ##ment
bodygu ##ards
chest ##s
spot ##light
conven ##ience
lun ##atic
reason ##ed
chr ##issy
dep ##ressing
##bl ##ood
##al ##o
mo ##ses
gl ##inting
vo ##cal
inf ##ilt
obsc ##ured
bachel ##or
me ##ow
li ##ver
over ##grown
exp ##osure
underst ##ate
del ##usion
nur ##s
meaning ##ful
tort ##uring
b ##is
##ir ##o
er ##n
sh ##ak
pre ##ntice
sett ##les
##y ##ss
por ##ter
swear ##ing
sacrif ##iced
##art ##s
shagg ##y
h ##ipp
r ##hett
hor ##ny
viv ##ienne
pod ##ium
we ##ld
##ond ##a
po ##les
new ##com
max ##well
sequ ##ence
for ##ged
##ore ##scent
d ##v
##u ##ating
fr ##ames
corn ##ered
conqu ##er
sham ##an
concl ##usions
free ##zer
p ##m
hous ##ing
amid ##st
m ##umbling
go ##als
##ie ##ur
adol ##in
harm ##ony
mont ##gom
st ##ony
##ore ##t
te ##et
fl ##aring
gear ##s
glam ##our
bu ##bbled
##ol ##ph
kingdom ##s
s ##ierra
dis ##ord
pac ##ific
##f ##are
con ##cus
brother ##hood
##b ##elt
orde ##al
ne ##aring
sun ##s
gyps ##y
alco ##ve
r ##anger
is ##h
pe ##as
jac ##obs
emplo ##yer
miser ##ably
sant ##iago
adj ##acent
jew ##ish
rust ##le
cere ##mon
remark ##s
counsel ##or
##id ##al
rebu ##ild
##ood ##le
em ##mie
resist ##ing
squir ##ming
p ##av
hot ##els
devour ##ed
jacqu ##es
bl ##og
fact ##ion
sc ##attering
ho ##isted
a ##ch
mention ##ing
ador ##ned
mons ##ieur
rein ##force
resur ##re
##s ##l
und ##id
##ane ##y
lad ##s
charco ##al
be ##m
mon ##ot
tu ##gs
pros ##per
bur ##ke
le ##aking
masc ##ara
r ##umpled
sher ##ry
w ##anda
##p ##ie
rel ##iable
dishe ##veled
d ##y
ab ##yss
bo ##oming
understate ##ment
trave ##lled
##ag ##ram
pat ##s
hi ##king
opportun ##ities
ste ##ely
##on ##ia
fur ##ry
fl ##ips
wreck ##age
foot ##prints
bul ##ky
ram ##med
hyp ##n
tack ##le
sk ##ir
shuff ##le
intrig ##uing
alex ##a
cu ##dd
##ou ##x
##be ##it
g ##ale
##ut ##tering
need ##y
tren ##ch
v ##and
##ber ##ries
penet ##rate
se ##ared
star ##b
aston ##ishing
rep ##ro
ed ##win
##ib ##he
rad ##iant
bord ##ers
ot ##to
jud ##ged
ly ##rics
revers ##ed
##w ##ick
cont ##orted
dom ##estic
##ily ##n
fan ##ned
car ##men
all ##an
cle ##ment
##sh ##ots
purs ##uing
subst ##antial
##at ##ures
privile ##ge
##ou ##rage
sal ##i
doll ##s
celebr ##ating
pl ##aid
bur ##g
abb ##ot
is ##aiah
dun ##no
pers ##isted
ex ##ceed
rem ##y
celebr ##ity
crick ##et
water ##ing
gruff ##ly
##hu ##inn
glit ##ter
o ##me
##b ##ury
reco ##iled
suggest ##s
dang ##ers
thirt ##ies
~ ##~~
##r ##s
##ri ##fied
settle ##ment
custom ##s
j ##ing
##roll ##ed
o ##ll
kell ##er
tilt ##s
3 ##2
gra ##zing
##ich ##i
cour ##sing
pig ##s
grass ##y
shir ##ley
leisure ##ly
s ##ven
cr ##umbled
evol ##ution
lab ##eled
deb ##ated
3 ##1
unpredict ##able
t ##anya
syring ##e
miss ##ile
lea ##ked
drople ##ts
##f ##ree
re ##arr
christ ##ine
k ##le
pe ##ck
mor ##on
b ##il
q ##huinn
prob ##ing
loo ##ped
skull ##s
be ##in
scrut ##in
##row ##ing
bag ##gage
##ant ##he
uncertain ##ly
z ##ander
de ##als
##our ##se
am ##mun
accommod ##ate
kar ##ou
gob ##lin
nurs ##ery
wa ##iling
##co ##ver
##here ##s
ins ##ulting
coo ##ling
suggest ##ions
light ##en
par ##am
must ##ang
upd ##ate
sweet ##est
anast ##asia
no ##is
wren ##ch
chey ##enne
b ##unched
p ##ried
ro ##g
wom ##b
leg ##acy
p ##umps
who ##lly
magn ##etic
proc ##laimed
present ##ation
oper ##ate
ga ##ius
##oc ##used
dom ##ain
purs ##ued
##c ##ia
sw ##itching
sub ##sequ
shapesh ##if
is ##le
cour ##sed
bottom ##s
stradd ##ling
yog ##a
t ##um
##bb ##ly
sent ##ences
ammun ##ition
eight ##h
mal ##ik
s ##issy
appear ##ances
din ##osaur
gri ##zz
wag ##ons
##c ##ro
be ##nds
##est ##one
rec ##ess
com ##ed
un ##mar
bl ##aine
mah ##og
##ad ##en
work ##out
cor ##bin
toll ##iver
radi ##ation
entit ##led
mahog ##any
shim ##mer
##ld ##a
eas ##iest
st ##acey
sy ##b
unt ##r
montgom ##ery
tur ##tle
##af ##ter
nephil ##im
d ##ank
sc ##uff
ais ##lin
b ##enson
g ##ambling
hands ##h
cal ##ves
clean ##er
ob ##jected
sheep ##ish
cl ##attered
adv ##ancing
mod ##els
##ol ##ine
instru ##ction
artifact ##s
sa ##br
al ##beit
pul ##s
bow ##ling
rab ##id
hast ##y
b ##ane
acc ##um
maintain ##ing
revol ##ver
recru ##it
spect ##acle
irresist ##ible
x ##ander
se ##ize
thr ##um
hurric ##ane
sh ##rew
proper ##ties
intention ##ally
gl ##imm
lay ##ton
legit ##imate
minim ##al
demon ##ic
s ##ings
##m ##ers
cover ##t
bust ##er
solom ##on
stom ##ping
mur ##ky
hoo ##king
e ##cl
dev ##oid
##iam ##i
fol ##i
height ##ened
tam ##ara
torment ##ed
spec ##im
inc ##ons
mol ##ten
##n ##ell
##ra ##ble
motherf ##ucker
hus ##k
delight ##ful
ro ##ke
past ##a
run ##way
apolog ##izing
crew ##s
a ##ster
d ##h
r ##ant
fresh ##man
to ##ned
ab ##used
ra ##j
sense ##less
knock ##s
secre ##cy
n ##agging
bert ##ie
##u ##ity
##as ##ar
man ##ual
twir ##ling
f ##ul
com ##bed
can ##cel
##ced ##ing
form ##id
recogn ##ised
lab ##ored
hill ##side
hav ##ily
eat ##s
f ##ain
shr ##ank
l ##ora
un ##ch
virgin ##ity
summ ##ers
pe ##ers
mag ##ically
succ ##ession
##f ##ying
corpor ##ation
v ##innie
al ##erted
belief ##s
b ##icy
##br ##ide
foli ##age
conf ##ines
stan ##ley
bre ##th
merr ##ill
dist ##orted
educ ##ated
zo ##ey
m ##iami
myster ##ies
le ##vet
associ ##ation
po ##ly
br ##ittle
pict ##uring
manic ##ured
##ir ##st
bo ##g
aut ##op
sib ##yl
scholarsh ##ip
discon ##cer
p ##ens
p ##ooled
fr ##iction
phys ##ics
flur ##ry
dan ##ika
liz ##ard
dizz ##iness
ch ##asm
cu ##be
restr ##ain
##in ##ery
ari ##el
##ament ##al
step ##father
##b ##ear
co ##herent
weather ##ed
##n ##an
maneu ##vered
austral ##ia
l ##akes
ph ##arm
free ##ing
##th ##at
gar ##ment
pry ##ing
a ##u
men ##ace
refres ##hing
exped ##ition
lay ##s
mass ##es
alc ##ide
c ##in
##b ##ot
off ##spring
##r ##ations
mil ##o
maxim ##um
##p ##aper
had ##ley
sur ##ging
##ic ##eless
applic ##ation
gr ##ades
lever ##age
f ##ern
ret ##ract
stru ##ctures
ch ##all
ber ##th
spr ##int
stubborn ##ly
car ##cass
purpose ##fully
guarante ##ed
bra ##v
enc ##omp
##col ##o
##worth ##y
ind ##y
unw ##el
mae ##ve
black ##s
##in ##ished
protect ##ively
hesit ##ating
ly ##c
alex ##and
compre ##hens
post ##ers
##ett ##es
broad ##ly
b ##aking
appro ##aches
insp ##iration
d ##and
cr ##aned
h ##ou
ap ##oc
imp ##osing
piv ##oted
##ut ##ing
unst ##able
corpor ##al
l ##ars
##m ##el
pers ##istent
vert ##ical
##i ##ope
sl ##ices
rec ##ons
sh ##ab
##ot ##hed
de ##uce
dar ##la
suck ##er
fl ##ops
heart ##ed
pl ##aza
camp ##bell
perse ##phone
##mi ##ah
c ##rop
##ul ##u
bored ##om
kh ##al
nic ##ola
condition ##ing
nud ##ge
rect ##angular
react ##ing
defe ##nded
sub ##miss
calcul ##ating
approx ##imately
##ograph ##y
ch ##i
angel ##ina
z ##en
sl ##its
mad ##oc
spar ##se
distinct ##ly
jud ##ith
sav ##or
mart ##ial
medall ##ion
tr ##oop
disp ##osal
pr ##istine
ste ##ward
add ##icted
familiar ##ity
##heart ##ed
dw ##ind
barre ##ls
const ##able
candid ##ate
formid ##able
un ##int
gr ##ady
wed ##ge
transp ##orted
##g ##os
pin ##point
c ##ly
spread ##s
holl ##ered
bu ##cked
opt ##ed
de ##ception
am ##en
indiffer ##ent
cor ##al
direct ##ing
r ##usted
rich ##ie
deb ##ating
clip ##board
render ##ed
o ##le
glow ##ered
tight ##ens
reg ##in
del ##ir
miss ##ions
g ##agged
##r ##ane
##re ##ls
##ie ##val
shut ##s
click ##s
bik ##es
##gir ##l
address ##ing
inhabit ##ants
possess ##ions
cond ##oms
scor ##ched
carpath ##ian
ev ##ang
chick ##ens
kil ##omet
all ##en
expand ##ing
depos ##it
prop ##osition
object ##ive
torn ##ado
z ##el
wa ##vering
care ##free
ple ##ad
hom ##ic
transport ##ation
co ##b
sever ##ance
rain ##e
sed ##uction
typ ##ically
##ist ##ically
med ##ieval
buff ##et
de ##arest
tim ##othy
sabr ##ina
understand ##able
gogg ##les
##l ##eness
##he ##nt
add ##y
negle ##cted
out ##door
respect ##ful
##am ##ous
gener ##als
mid ##day
pear ##ls
st ##out
br ##ute
pe ##pp
pat ##ty
##are ##l
sat ##chel
mon ##arch
splin ##tered
##n ##ap
##h ##ouses
phys ##ician
par ##amed
bet ##ting
##cho ##ly
mult ##i
frequ ##ency
scrut ##iny
##ri ##ages
tal ##ons
app ##alled
notice ##able
seam ##us
##el ##ia
boyfriend ##s
try ##stan
stif ##ling
melan ##choly
run ##es
v ##ort
##ill ##es
h ##olog
##k ##an
peace ##fully
oper ##ator
specul ##ation
ro ##c
cr ##unched
##ian ##na
ir ##ises
##v ##ably
we ##ave
sn ##ee
tra ##pping
lav ##a
fero ##cious
bother ##s
ears ##hot
mc ##bride
ke ##e
establish ##ment
##ci ##ble
cra ##ppy
betray ##ing
sl ##ate
##qu ##o
activ ##ated
w ##ired
plat ##ter
##lu ##cent
rel ##ations
candle ##light
t ##ous
in ##scri
rumm ##aged
##u ##v
##ur ##bed
con ##co
sho ##ves
##k ##ill
garden ##er
kent ##on
chis ##eled
##ra ##ved
inse ##ct
her ##b
bel ##inda
monit ##oring
inh ##uman
out ##do
sol ##itude
she ##athed
##ver ##ns
he ##ft
har ##med
wa ##fted
cons ##ciously
trans ##lucent
disappro ##ving
dr ##one
err ##atic
##it ##als
surf ##aced
##p ##ants
car ##avan
const ##r
cont ##ra
large ##ly
dart ##s
pout ##ed
##rim ##and
microw ##ave
alm ##a
ko ##dy
clo ##aked
slither ##ed
st ##ash
clou ##dy
declar ##ation
aff ##irm
glo ##omy
rans ##om
other ##world
gut ##t
memor ##ial
m ##ord
in ##ad
like ##wise
pres ##ume
ble ##nded
content ##ment
recon ##c
coo ##led
rein ##for
##ic ##iency
rep ##rimand
add ##ison
der ##rick
p ##int
outl ##ined
breth ##ren
f ##iber
thin ##ned
hilar ##ious
v ##int
t ##iled
predic ##ament
##ur ##able
dis ##em
reynold ##s
##e ##er
elim ##inate
tant ##al
wor ##sh
sub ##way
colle ##ague
acceler ##ated
as ##ian
hand ##bag
snow ##y
redd ##ish
##f ##ounded
##ver ##e
mass ##aging
dash ##board
mar ##ion
sn ##iper
bar ##riers
appre ##ntice
week ##ly
en ##ch
per ##t
##ict ##ions
y ##ar
##id ##i
bill ##iona
wh ##izz
b ##ah
ad ##a
out ##fits
dev ##lin
angel ##o
freder ##ick
by ##p
low ##est
h ##inted
##ac ##ter
stall ##ion
##r ##ist
sl ##aps
gr ##oo
lim ##ous
length ##s
inc ##oming
har ##riet
##ang ##es
stall ##s
entertain ##ed
acade ##mic
o ##oo
tim ##ber
squir ##rel
p ##unk
mu ##gs
##j ##u
reser ##vation
will ##y
play ##ground
grunt ##ing
##bl ##ins
sympt ##oms
##ph ##is
whis ##ky
eager ##ness
gr ##otes
dep ##lo
palp ##able
cr ##iss
flat ##tered
##all ##ister
var ##i
sculpt ##ed
d ##ashing
r ##anc
##am ##i
sp ##acious
fin ##ishes
brief ##s
triumph ##ant
min ##es
interview ##s
sub ##mit
stradd ##led
d ##oo
ser ##ves
thick ##ly
har ##lin
raf ##ael
t ##i
dis ##reg
jay ##den
les ##lie
sid ##est
brid ##ges
##art ##ed
report ##ing
respect ##able
rev ##ulsion
civil ##ized
associ ##ates
gren ##ade
alex ##ei
dig ##est
unif ##ormed
apoc ##aly
a ##ve
so ##v
part ##ial
miss ##y
dee ##med
obsc ##ure
z ##ac
in ##ability
bl ##ot
sp ##hin
bl ##ay
cou ##ches
separ ##ation
barr ##acks
hand ##les
mat ##hem
loving ##ly
pr ##icked
display ##ing
dis ##k
19 ##4
h ##ark
whe ##at
ny ##mph
seet ##hing
f ##ame
haw ##ai
fu ##eled
hint ##s
duck ##s
le ##ct
look ##in
break ##down
dream ##y
##f ##ound
ent ##ity
shar ##per
soft ##ware
tem ##pl
fee ##ble
contin ##ually
z ##ar
vo ##iced
dem ##ise
sphin ##x
car ##rier
stro ##lling
jen ##kins
hyp ##not
count ##ess
confident ##ial
m ##ated
unre ##al
yawn ##ing
tr ##icked
instru ##ctor
fe ##igned
fre ##ight
bun ##ny
vessel ##s
d ##elt
##f ##y
##ole ##um
bever ##ly
cat ##ast
hy ##de
yach ##t
##are ##th
char ##ley
tit ##les
so ##x
tail ##ored
flex ##ing
treacher ##ous
pres ##ently
pad ##ding
hood ##ie
beha ##ved
l ##umber
fl ##ask
r ##ach
lo ##ki
exc ##laim
ag ##gression
##sc ##reen
del ##aney
ele ##ction
business ##man
ban ##ished
tend ##ency
slaught ##ered
rep ##ay
depos ##ited
19 ##5
z ##arek
en ##qu
flor ##al
r ##ift
not ##ep
##ro ##k
vo ##c
chest ##er
sar ##iana
material ##ized
gra ##pe
f ##ades
tor ##rent
flann ##el
sl ##u
pr ##iceless
bri ##elle
##we ##ight
##r ##at
sc ##orn
jack ##ets
class ##mates
ingred ##ients
f ##ates
cho ##pper
bl ##aring
##op ##ath
perce ##ived
c ##ory
wo ##bbled
str ##ider
##acher ##s
process ##ing
##b ##ir
unc ##onsciously
aggra ##v
##ry ##s
outl ##aw
cert ##ific
##n ##on
eyeb ##alls
attend ##ance
earlo ##be
so ##aring
pil ##ots
##an ##as
sp ##ag
##be ##ats
ad ##ept
cam ##den
sub ##mission
compl ##iments
bak ##ery
##i ##ated
be ##ige
fel ##icia
l ##ent
tre ##sp
mach ##inery
secure ##ly
p ##es
inv ##ading
##j ##an
##ce ##nd
cor ##ds
aut ##o
asp ##en
sciss ##ors
ce ##o
kal ##i
cra ##ve
prom ##otion
bul ##ged
fac ##ilities
shakes ##pe
ast ##ron
##t ##ub
ad ##vers
hor ##rors
strang ##le
splend ##id
c ##athy
manip ##ulated
st ##oop
comp ##elling
pl ##uck
rome ##o
d ##c
sun ##ken
qual ##ified
c ##ages
em ##ails
lick ##s
thu ##gs
to ##xic
ar ##ches
life ##mate
p ##ets
square ##ly
royal ##ty
##ro ##ph
warning ##s
g ##ail
##et ##ers
ag ##ing
home ##coming
shel ##tered
rav ##ine
inter ##l
squ ##int
treat ##s
dumb ##founded
##b ##u
conn ##ie
du ##el
tipto ##es
jut ##ting
seat ##belt
ban ##ana
spag ##hett
##in ##arily
##on ##i
##ah ##an
ed ##gar
col ##umb
gutt ##ural
g ##ulf
unf ##org
plot ##ting
##i ##our
min ##ions
haz ##ard
j ##ets
could ##ve
ob ##nox
test ##im
wre ##cked
un ##char
fil ##ter
travel ##ers
inspect ##ing
des ##ks
b ##ened
clar ##ified
oo ##h
g ##ushed
wis ##er
s ##ash
nud ##ging
get ##tin
state ##ments
unders ##ide
just ##ify
over ##c
b ##m
##os ##c
str ##ut
strang ##est
wise ##ly
sort ##ing
en ##l
arm ##our
ant ##s
humili ##ated
sn ##ot
mort ##on
evapor ##ated
forb ##id
stif ##le
sp ##ice
cold ##ness
luc ##inda
suffoc ##ating
##t ##ra
ac ##hes
go ##blins
p ##ia
se ##ating
##ul ##us
fl ##apped
bur ##ial
ext ##ension
faint ##est
beld ##in
tow ##ered
jew ##s
fo ##e
mat ##th
mass ##aged
mim ##i
independ ##ence
##j ##e
co ##arse
cr ##ane
ass ##ets
grotes ##que
act ##ors
cl ##ans
res ##olute
##ol ##is
gi ##b
bum ##per
gr ##ues
ke ##v
christ ##ina
dism ##ounted
ch ##ore
anticip ##ating
con ##ve
belong ##ing
##l ##ust
sa ##ber
ver ##b
pix ##ie
bas ##il
surrender ##ed
j ##ub
inter ##ference
form ##ally
d ##ard
request ##s
contempl ##ate
s ##ided
persu ##aded
insult ##s
implic ##ations
complaint ##s
pat ##ro
aut ##hent
ret ##ain
univers ##al
heart ##ache
alt ##air
unbelie ##vably
fl ##oren
serious ##ness
e ##ure
am ##ate
unw ##ra
i ##on
##am ##el
fire ##light
mon ##ument
ident ##ification
##ass ##y
shut ##ters
so ##d
##ink ##s
##sh ##an
shred ##s
jo ##ck
dist ##ressed
cru ##cial
skim ##ming
##ect ##ing
long ##bow
pu ##ke
unf ##old
k ##ore
am ##ple
well ##s
fl ##int
pol ##ar
mike ##y
trop ##ical
sav ##ored
chick ##s
##ag ##ny
r ##oused
w ##inking
al ##ist
aristo ##cr
o ##v
talk ##in
milit ##ia
##n ##ation
cid ##ra
or ##acle
daunt ##less
arian ##na
expect ##ation
h ##ides
##ld ##or
sl ##ugg
night ##fall
intim ##ately
curt ##ly
restraint ##s
map ##le
cod ##es
spaghett ##i
##in ##ction
van ##ion
##igg ##o
indul ##g
piss ##ing
grues ##ome
o ##st
##ll ##or
bl ##aming
loung ##ing
dr ##ool
met ##iculous
grac ##ious
recom ##me
ag ##itation
scott ##ish
eman ##ating
el ##vi
##ili ##ans
fiance ##e
v ##antage
m ##air
v ##iggo
d ##as
eu ##ph
p ##ere
an ##al
insign ##ific
p ##ike
unsett ##led
asce ##nded
neighb ##oring
pad ##dle
ire ##ne
batt ##led
##j ##ud
ann ##ivers
##iss ##ance
bur ##ly
vi ##king
pisto ##ls
accus ##ations
vi ##be
slur ##red
am ##mo
ele ##cted
l ##us
r ##ation
sock ##ets
mos ##qu
will ##ie
julian ##a
bearing ##s
floren ##ce
##is ##ive
##ra ##ught
eure ##ka
bur ##d
eug ##ene
par ##r
draw ##ings
par ##isa
consequ ##ence
l ##ousy
v ##iet
over ##st
her ##r
##eng ##es
mort ##ified
k ##os
gr ##ated
af ##ghan
turn ##er
any ##ways
ent ##icing
unf ##inished
maur ##ice
sur ##m
jack ##ass
w ##ards
##ot ##hes
mar ##veled
enc ##ased
introdu ##ctions
goof ##y
miss ##iss
count ##enance
order ##ly
ha ##ught
expression ##less
re ##ggie
un ##ru
t ##ame
ha ##cked
gr ##ime
##ian ##ces
super ##vis
ze ##al
shakespe ##are
int ##ake
ast ##rid
spray ##ing
whimper ##ing
##tern ##at
th ##ur
ca ##ffe
bre ##wing
qual ##ities
bunk ##er
c ##akes
comp ##act
win ##ters
##fic ##ial
sust ##ain
bra ##x
trick ##ling
##im ##an
j ##or
pre ##ternat
##iv ##able
inad ##vert
v ##apor
econ ##omy
cr ##inkled
victor ##ian
sale ##m
bra ##ke
clim ##bs
repe ##ats
g ##ou
ref ##usal
bod ##ice
sav ##anna
j ##ina
manf ##red
was ##t
##im ##ir
my ##ri
rem ##inis
may ##f
new ##found
sens ##ors
horiz ##ont
##ar ##us
##u ##ki
mad ##man
##ipp ##i
cl ##air
hit ##ler
ju ##icy
assign ##ments
cate ##g
##es ##cent
##de ##us
art ##agny
expert ##ise
dist ##raught
##bor ##ne
d ##um
thin ##ner
adam ##ant
subt ##ly
##gu ##ard
artagny ##n
st ##ooped
le ##p
def ##ine
##umin ##ous
vic ##iously
##m ##atic
lo ##athing
##in ##qu
mo ##g
cre ##eps
ind ##uced
throat ##s
he ##ven
st ##ashed
colour ##ed
c ##asket
##ro ##y
home ##made
port ##land
s ##ot
dear ##ly
quar ##ry
be ##aded
cha ##otic
it ##ching
##la ##f
wrigg ##led
g ##illa
explan ##ations
wo ##bbly
app ##lying
miss ##es
rece ##ip
aud ##itor
p ##ors
##u ##z
jo ##ints
roof ##top
l ##anc
##le ##ys
interrupt ##ion
gn ##ar
pant ##her
theat ##re
vo ##ss
dr ##ows
show ##ers
pin ##ching
blo ##omed
inevit ##ably
al ##arms
pat ##ter
te ##eg
swe ##ats
wist ##ful
##c ##up
##im ##ented
creat ##or
reser ##vations
aspect ##s
j ##ars
acqu ##ainted
compet ##e
unc ##les
jere ##miah
anch ##ored
##om ##eter
sign ##aling
bour ##bon
al ##ab
conver ##ted
coy ##ote
cra ##b
mais ##ie
rest ##lessly
steady ##ing
ka ##ia
recip ##e
##h ##is
fl ##itted
ph ##oned
clos ##eness
matth ##ias
##b ##ound
per ##ception
dece ##ased
va ##let
##am ##s
##est ##on
##ul ##ent
mist ##aking
ball ##et
ton ##i
irre ##le
h ##ott
lo ##go
inter ##state
gl ##enn
tin ##iest
clu ##eless
mo ##ll
jose ##f
c ##um
j ##igg
dra ##gs
fift ##ies
dwell ##ing
ser ##ver
def ##iant
bath ##tub
##rane ##an
##am ##y
wicked ##ly
##r ##ich
men ##c
auth ##ors
ripp ##les
o ##re
fo ##il
word ##lessly
gen ##et
sal ##uted
##c ##ule
##il ##ation
fl ##inging
thom ##pson
##the ##ned
particip ##ate
magic ##ian
path ##way
##h ##at
war ##lock
##ann ##ers
##o ##inting
st ##ating
nig ##el
met ##er
atl ##antic
imm ##inent
##hol ##es
contain ##ers
earthqu ##ake
ve ##ered
summ ##oning
##d ##an
##if ##ies
##g ##al
sw ##armed
read ##ers
carn ##ival
brist ##led
tr ##actor
hal ##ting
##bur ##gh
fre ##aks
music ##ians
**** ##*
geoff ##rey
menc ##heres
mount ##ing
assess ##ing
##itt ##ens
##ber ##to
##as ##se
##az ##ard
gu ##ides
esc ##apes
mississ ##ippi
ro ##l
bl ##aire
cho ##pped
pip ##ed
b ##amb
d ##umping
all ##e
sc ##ored
obs ##idian
al ##o
wor ##ms
garr ##ison
sov ##iet
r ##oo
mat ##ted
thumb ##ed
princ ##iple
soft ##ening
du ##ct
und ##ressed
rhythm ##ic
chall ##enges
bl ##a
will ##s
bon ##fire
stocking ##s
mon ##ks
g ##amb
pun ##ishing
ham ##ilton
gee ##z
comr ##ades
alist ##air
in ##co
dat ##ab
secl ##uded
##ball ##s
batter ##ies
k ##all
##ell ##er
bar ##red
sorcer ##er
##in ##as
on ##coming
all ##erg
bust ##ling
eug ##en
vint ##age
co ##ating
ma ##ids
corr ##ado
cl ##aren
fact ##ly
unb ##uck
employ ##ment
st ##ages
ang ##rier
##am ##ents
over ##h
wa ##ft
tax ##es
insist ##ing
##fe ##ll
ed ##mund
indul ##ge
grandchild ##ren
exist ##ing
limous ##ine
qu ##er
##che ##ster
partic ##les
##op ##le
elb ##owed
program ##s
scor ##ching
than ##e
##ph ##s
b ##aring
b ##aw
ex ##its
ho ##bb
inde ##f
p ##its
##n ##ian
produ ##cing
wigg ##le
enth ##r
so ##lic
pass ##word
##ud ##ing
zak ##ath
rul ##ing
##n ##am
unt ##ied
program ##med
altern ##ate
maxim ##us
res ##ulted
new ##born
hor ##rid
van ##ishing
f ##ooling
##r ##ade
thr ##ashed
k ##ip
v ##ary
blood ##shot
##am ##ation
al ##ix
concus ##sion
t ##ia
ref ##uses
hom ##eland
b ##ard
bed ##ding
dan ##ielle
du ##h
plu ##gged
##ss ##on
fr ##aud
aw ##aken
l ##ime
##or ##ic
oblig ##ation
##m ##ath
calm ##er
sec ##uring
plag ##ued
annivers ##ary
def ##iantly
prop ##elled
her ##ald
##ab ##ilities
tar ##p
##vol ##ent
f ##iend
o ##ops
awak ##ening
apologet ##ically
##z ##ied
light ##ed
scra ##ps
haw ##ks
invent ##ory
sl ##ayer
ca ##lder
krist ##en
d ##ances
frag ##rance
sp ##on
tre ##ason
goble ##t
cour ##th
fre ##aky
ins ##ists
sa ##ul
over ##re
per ##me
bem ##used
##ph ##ia
##ili ##pp
fil ##th
##ass ##ie
predict ##able
caval ##ry
ass ##urance
jag ##uar
be ##ak
lo ##ses
door ##frame
bab ##bling
restr ##aining
distr ##ust
voy ##age
well ##ing
saf ##ia
sl ##icked
delt ##a
gre ##ens
sto ##cked
##che ##t
record ##er
fet ##ched
g ##ild
first ##hand
prevent ##ing
redd ##ened
u ##k
##en ##na
man ##ly
text ##ure
cre ##scent
organ ##ic
inf ##licted
mac ##on
fer ##ocity
bm ##w
v ##erm
nat ##ured
f ##ainted
it ##d
sl ##ant
##i ##ably
##h ##ard
shoot ##er
pr ##u
clas ##ping
fo ##ggy
must ##y
extra ##v
humili ##ating
indiff ##erence
on ##ward
absor ##bing
tat ##iana
bod ##ily
ban ##ter
phil ##adel
function ##ing
ry ##ker
snat ##ching
d ##ile
prov ##oc
elev ##ated
rend ##ez
grump ##y
b ##ick
po ##lo
ter ##se
fun ##ctions
boy ##ish
scru ##bbing
announ ##cing
par ##l
jose ##phe
out ##n
kid ##nap
luci ##fer
isol ##ation
merch ##ants
pen ##al
exhaust ##ing
no ##bles
jer ##ky
alley ##way
stere ##o
contract ##s
m ##amm
##as ##is
##ar ##ians
sp ##out
mill ##ing
claren ##ce
sh ##ah
sult ##ry
s ##ill
aband ##oning
sus ##ie
legend ##ary
rel ##ish
jean ##ne
sie ##ge
##our ##t
aunt ##ie
oper ##ated
terror ##ists
emb ##assy
includ ##es
temp ##ered
marking ##s
volcan ##o
gr ##umbling
##ott ##a
ra ##ff
angel ##ic
todd ##ler
im ##ogen
per ##ked
ry ##ke
dump ##ster
an ##at
br ##us
tw ##inkled
du ##val
pred ##atory
##u ##hl
ab ##om
ca ##el
main ##e
h ##igg
after ##math
ed ##ging
paran ##ormal
##ri ##um
sc ##ant
finger ##prints
ling ##erie
puck ##ered
floor ##boards
polit ##icians
flu ##orescent
stain ##less
co ##cks
design ##ated
interp ##re
mil ##ky
band ##aged
gir ##ly
bit ##ches
ce ##zar
n ##ag
fl ##im
bree ##ches
ting ##les
bra ##w
colon ##ies
yel ##p
courth ##ouse
c ##ay
sp ##ain
sto ##ic
shirt ##less
3 ##6
al ##as
imm ##ac
bud ##s
de ##co
sal ##ary
virt ##ue
be ##x
man ##us
m ##ice
conver ##se
ep ##il
dish ##on
conj ##ured
b ##rie
inter ##t
rendez ##vous
##o ##ot
sp ##ons
ever ##l
##h ##ib
hou ##ston
##our ##ing
ell ##i
##eless ##ly
parano ##ia
p ##umm
tim ##id
rose ##wood
tim ##my
##is ##ation
dis ##li
explos ##ives
the ##ran
##and ##ro
unwel ##come
inst ##all
knowing ##ly
card ##inal
##ack ##le
##qu ##er
outrage ##ous
philadel ##phia
h ##oof
cher ##ished
tipto ##e
l ##ashing
st ##ann
hamm ##ond
illum ##ination
wa ##ff
dis ##lod
ir ##reg
acknowled ##ging
tact ##ic
##c ##ard
so ##ren
c ##aged
under ##cover
fav ##ored
grim ##acing
twig ##s
gh ##ou
saff ##i
pre ##jud
saus ##age
cut ##ter
##lin ##er
descri ##bing
poison ##ous
fl ##ora
civ ##ilians
##azz ##i
outdo ##ors
notep ##ad
sp ##icy
shrie ##ks
j ##inn
nothing ##ness
dec ##re
amaz ##on
ary ##a
cre ##v
hav ##oc
shadowhun ##ters
k ##els
re ##eled
sl ##os
wh ##ips
germ ##ans
mu ##ck
end ##lessly
stom ##p
lim ##ping
nave ##l
cat ##ac
emb ##ers
crack ##le
hy ##brid
button ##ed
disple ##asure
cobb ##lest
love ##making
mor ##gue
sam ##son
cly ##de
##it ##an
oh ##io
length ##y
min ##a
sand ##ers
grie ##ving
thrott ##le
##v ##ish
compl ##ied
youth ##ful
bar ##bec
lantern ##s
mid ##air
clust ##ered
intu ##ition
d ##ice
st ##ilet
##ret ##ion
arr ##anging
breed ##ing
tranqu ##il
unchar ##acter
sar ##ge
gig ##uhl
l ##ax
o ##laf
glimps ##es
obed ##iently
ern ##est
op ##a
di ##ved
##og ##y
horri ##fying
ent ##wined
tang ##ible
##en ##et
lo ##b
epil ##ogue
##t ##hen
##iz ##ations
##ath ##a
light ##house
acc ##idents
et ##c
p ##ing
##a ##vering
surve ##ying
nov ##ak
be ##gg
aw ##ed
e ##ri
cour ##ses
deal ##ers
t ##ully
sp ##art
unre ##ason
zo ##omed
nonchal ##antly
e ##ibhe
##ood ##les
bet ##t
pass ##ages
sub ##mer
eibhe ##ar
le ##aps
leg ##ally
gall ##ey
pro ##g
free ##way
thunder ##ing
park ##s
spell ##ed
##w ##right
##st ##ood
be ##ad
de ##eds
dust ##ing
fel ##icity
impass ##ive
be ##eped
tr ##inity
way ##ward
dim ##ple
blind ##fold
##wal ##ks
billiona ##ire
irrele ##vant
symp ##ath
elli ##ott
sa ##gging
secret ##ive
force ##ful
col ##oring
g ##ator
perio ##ds
swer ##ved
h ##iring
##ir ##able
en ##ig
ad ##jo
dim ##ensions
##ra ##wn
##sw ##ord
let ##t
indign ##ation
discreet ##ly
am ##ery
ni ##ol
spa ##wn
g ##and
ar ##sen
rel ##ate
russ ##ians
tack ##led
tut ##or
wield ##ing
se ##mb
g ##urn
disc ##l
embroid ##ered
##ch ##amber
##ol ##i
testim ##ony
##pt ##on
inter ##action
r ##in
pl ##edge
hung ##rily
motiv ##ation
overpower ##ing
sl ##ashing
current ##s
oll ##ie
on ##y
insignific ##ant
sl ##ime
o ##u
r ##amb
ju ##dd
obl ##iter
gown ##s
l ##ach
dak ##ota
b ##apt
fear ##less
lill ##ian
dile ##mm
boun ##cer
##w ##ig
##ab ##lo
sc ##utt
truth ##s
##ri ##ans
le ##opard
un ##g
champ ##ions
unner ##ved
r ##ally
go ##ats
over ##r
min ##ist
mult ##ip
dag ##mar
conserv ##ative
disord ##er
tri ##als
mau ##reen
re ##pt
g ##areth
fe ##nd
pr ##ank
ant ##ib
ire ##land
on ##sl
##ol ##s
war ##ped
fore ##ns
tight ##ness
gro ##lim
rele ##vant
bal ##ancing
speed ##s
stall ##ing
sl ##ain
hair ##cut
transl ##ation
shroud ##ed
z ##ur
##ont ##e
ass ##ert
works ##hop
ip ##od
pre ##st
bra ##ided
pair ##ed
lux ##en
fulf ##illed
##l ##ined
disbel ##ie
and ##ers
reg ##al
onsl ##aught
administ ##ration
tru ##ce
lys ##ander
##t ##ails
br ##ed
don ##ned
aur ##ora
tous ##led
mag ##en
process ##ion
wigg ##ling
f ##able
##j ##ama
son ##ya
egypt ##ian
advert ##ising
exp ##enses
ar ##am
cro ##pped
len ##ny
scor ##p
shak ##ily
##d ##ling
##er ##ation
mal ##ice
decl ##are
cad ##ogan
belt ##s
auditor ##ium
##udd ##ing
liter ##ature
under ##g
mal ##one
3 ##8
##m ##ere
##au ##m
pl ##owed
dis ##gr
mar ##ley
mor ##rison
fren ##zied
drum ##med
grudging ##ly
submiss ##ive
r ##ince
ann ##ual
host ##ility
##fall ##s
with ##stand
sh ##ai
list ##s
stri ##pes
misunder ##standing
in ##ching
fre ##s
treas ##ures
##h ##ap
##st ##op
ne ##b
lock ##et
p ##ep
sleep ##s
##ah ##o
mang ##led
cont ##ag
slim ##y
cl ##ums
exp ##elled
fort ##ies
storm ##y
we ##nd
per ##cy
##sp ##ons
rince ##wind
dev ##ils
cart ##s
v ##aulted
pr ##ices
al ##aska
te ##nding
mon ##ique
flag ##s
hard ##ware
unh ##armed
ponder ##ing
n ##ana
respons ##es
oo ##zing
passion ##ately
hott ##est
w ##agg
st ##am
ch ##ided
sco ##ff
expert ##ly
semb ##l
b ##j
dec ##line
ster ##ile
gis ##elle
d ##yed
for ##ge
ni ##bbling
optim ##istic
man ##n
##m ##outh
hang ##over
furn ##ished
def ##ence
sav ##ior
fidd ##led
mar ##ius
gas ##oline
cob ##we
fr ##inge
mail ##box
sc ##am
har ##b
mont ##ana
mar ##red
pack ##ages
ur ##ges
dissip ##ated
hair ##line
saf ##est
sh ##ipping
out ##raged
ho ##ckey
inst ##itution
prose ##cut
sc ##ald
ward ##ens
me ##and
shad ##ed
stiff ##en
tur ##quo
brut ##ally
scroll ##ed
inc ##idents
flick ##s
simpl ##er
##a ##is
cheek ##bone
occup ##ants
cit ##adel
numb ##ness
knuck ##le
r ##ambling
br ##ides
dream ##t
decided ##ly
seren ##ity
manus ##cript
##u ##ard
fl ##ank
cr ##ump
jeff ##rey
com ##in
sy ##rup
vibr ##ations
reverber ##ated
l ##ops
ha ##h
##ur ##er
tray ##s
##lic ##ting
sust ##ained
##p ##ow
object ##ion
ret ##ro
bat ##he
##cl ##iff
lun ##ge
veget ##ation
stew ##art
chim ##ney
prog ##ressed
f ##auc
walk ##ers
##n ##ah
##k ##as
com ##ic
pleas ##ing
b ##ib
##le ##te
##f ##unction
un ##m
fu ##g
vill ##ain
negoti ##ate
##to ##ck
cr ##umble
clut ##ches
carn ##age
architect ##ure
turquo ##ise
##m ##ary
spir ##aling
murder ##ing
n ##ip
sc ##um
inf ##amous
thu ##dded
##ag ##ra
cyl ##inder
night ##ing
vol ##umes
nic ##colo
b ##ans
##l ##orn
un ##pack
voice ##mail
liz ##zy
re ##med
tr ##ains
pred ##ators
cooper ##ation
infer ##no
su ##zy
behav ##iour
mant ##el
f ##ot
##y ##ll
lo ##ads
bryn ##ne
evang ##eline
hand ##gun
run ##g
cro ##ps
patric ##ia
##y ##the
cost ##umes
fart ##hest
exert ##ion
un ##qu
wo ##ve
inf ##irm
eaves ##dro
destru ##ctive
##ans ##on
atl ##ante
memor ##ized
crypt ##ic
mass ##ac
overfl ##owing
unt ##o
mosqu ##ito
##ight ##y
sp ##asm
reg ##ist
accompan ##ying
##w ##ide
up ##ro
sw ##iss
el ##ias
sha ##ving
louis ##iana
r ##ake
ble ##achers
dismiss ##ively
inadvert ##ently
ming ##ling
##ll ##ey
dem ##ocr
e ##cc
##w ##all
gl ##ac
dec ##ay
second ##ary
fidget ##ed
jut ##ted
ced ##ar
swe ##eps
cha ##iko
hamb ##ur
obst ##acle
rue ##fully
obnox ##ious
volunte ##ers
trou ##bling
##aff ##ected
resour ##ce
##bour ##ne
sab ##ot
affection ##ate
##f ##ace
ref ##resh
av ##asar
##ern ##al
avasar ##ala
t ##us
smug ##ly
ony ##x
imp ##e
pan ##icking
st ##inking
suit ##cases
suff ##iciently
decor ##ations
bord ##ered
lo ##is
pro ##be
last ##ing
weakness ##es
caffe ##ine
ser ##a
je ##well
holl ##and
reinfor ##ced
flim ##sy
se ##asons
breath ##y
cond ##es
ch ##lor
book ##store
201 ##4
coax ##ed
de ##cept
tra ##it
reg ##ards
dup ##lic
##ri ##ver
lan ##es
rack ##et
k ##ansas
l ##um
##at ##us
unb ##l
##ol ##es
food ##s
uncon ##cer
g ##aps
th ##ayer
ex ##ile
psych ##otic
salv ##age
pors ##che
profess ##ors
##u ##h
fig ##ur
alcohol ##ic
luc ##ah
##w ##ered
greet ##ings
aj ##ar
he ##eled
sc ##ores
throat ##y
gate ##way
trans ##mit
ros ##al
abdu ##cted
##k ##at
neck ##line
mel ##inda
l ##ahn
qu ##art
tre ##pid
ber ##ries
tooth ##p
night ##cl
bat ##ch
comprom ##ised
aph ##rod
nin ##th
##nat ##urally
met ##e
preser ##vation
a ##str
acc ##use
add ##ie
bill ##ie
bisc ##uits
transf ##ixed
devour ##ing
3 ##3
e ##w
m ##ashed
pe ##g
wrest ##led
awkward ##ness
bund ##led
bo ##oted
irreg ##ular
abst ##ract
pav ##il
sn ##ag
bold ##ly
##in ##ous
man ##ages
conf ##er
look ##out
pe ##a
met ##res
tap ##es
##uls ##ive
camoufl ##age
##act ##ive
spot ##ting
dry ##er
assass ##ination
recomme ##nded
lops ##ided
mir ##th
##ur ##t
tick ##le
fran ##co
bray ##den
##pr ##int
mc ##donald
metaph ##or
tourn ##ament
ench ##anted
f ##ont
che ##n
tu ##xed
ber ##ry
gau ##ze
clam ##bered
chandel ##ier
##ll ##er
pro ##jected
##iet ##ta
cu ##ddled
ult ##ra
subur ##ban
envision ##ed
p ##om
und ##ress
confir ##ming
oppon ##ents
##u ##er
##lo ##aded
trans ##mission
crumb ##s
man ##uel
wr ##ight
wid ##th
tab ##by
serge ##i
dub ##ious
r ##aking
r ##acked
med ##s
##t ##is
bik ##er
daim ##ons
##r ##ums
obsc ##ene
hound ##s
lay ##out
tiss ##ues
disag ##reed
defl ##ated
exper ##ts
loo ##ps
ed ##gy
tent ##acles
occup ##y
kur ##ik
techn ##iques
swat ##ted
smother ##ed
dilemm ##a
##er ##ment
bra ##very
ce ##il
bi ##ology
inv ##in
feat ##ured
rab ##bits
archer ##s
kn ##itting
din ##ners
cre ##ed
lut ##on
sare ##hl
custom ##ary
k ##ald
w ##lod
form ##ula
sque ##aling
wlod ##ek
r ##acks
set ##up
cam ##el
mer ##l
rubb ##ish
disbelie ##ving
rose ##mary
kat ##rina
t ##amp
blat ##ant
mar ##athon
undo ##ing
##l ##ter
bag ##gy
nighting ##ale
su ##mi
imp ##erson
camp ##fire
bened ##ict
##ell ##ar
deep ##ening
int ##el
ed ##wards
handsh ##ake
bill ##owing
j ##ana
gra ##ze
point ##y
reassuring ##ly
go ##ver
tre ##v
dev ##ious
meas ##uring
brun ##o
telepath ##ic
imm ##ig
sembl ##ance
a ##gh
cl ##ang
se ##aw
real ##ms
##br ##ook
roof ##s
puff ##ing
fo ##oth
no ##b
##ress ##ive
blast ##s
ecst ##atic
car ##la
chest ##nut
ur ##s
mum ##my
5 ##00
##il ##ize
alm ##ighty
wolf ##e
extrav ##ag
##t ##able
bo ##bo
##ib ##ble
buff ##alo
wear ##iness
div ##ide
clam ##my
lemon ##ade
gnaw ##ing
hypn ##otic
mayf ##air
mu ##le
gar ##ments
nick ##y
curt ##is
a ##ed
ped ##al
s ##ated
fr ##at
em ##m
ins ##in
trepid ##ation
car ##nal
fingern ##ail
##ol ##t
bu ##cking
mer ##ged
notor ##ious
min ##ing
kh ##aki
con ##text
ang ##ered
tar ##n
ger ##ard
kir ##k
shrew ##d
pa ##ved
##ort ##ions
je ##b
vib ##rate
chemical ##s
##us ##ible
preternat ##ural
ul ##ath
##y ##rin
mood ##y
me ##ld
an ##ew
eas ##ter
ren ##ov
##h ##y
inc ##ess
gr ##itting
gnar ##led
##and ##o
g ##ast
ch ##y
should ##ve
##ib ##al
oper ##ative
frost ##y
distinct ##ive
surviv ##or
rox ##ie
fire ##fight
pet ##erson
far ##ms
drum ##ming
tel ##esc
so ##bered
lab ##yrin
ank ##h
condem ##ned
sh ##al
unf ##ur
g ##am
it ##ched
##ort ##ment
port ##able
ch ##ipped
appro ##ving
s ##anche
inv ##ested
s ##ips
he ##ave
cait ##lin
hosp ##itals
oak ##a
th ##oy
pa ##jama
acknowled ##gment
respect ##ive
goodby ##es
gill ##ian
##ch ##i
miss ##iles
impl ##ant
resol ##ution
daim ##on
she ##a
crack ##ers
micro ##sc
cur ##ed
myst ##ical
acqu ##ire
mig ##uel
##ab ##e
gener ##ator
amb ##ition
immense ##ly
wast ##eland
bo ##nding
weight ##s
bewild ##erment
g ##ore
s ##ut
##way ##ne
che ##ery
tal ##aith
expect ##s
9 ##11
mar ##ilyn
class ##ified
pump ##kin
un ##affected
aid ##s
rox ##y
pro ##lo
d ##ime
contract ##ed
ur ##ban
fil ##ms
shab ##by
blood ##line
plate ##au
a ##ke
##sc ##ow
cru ##z
disgu ##ised
conqu ##est
gil ##bert
ceil ##ings
ha ##ph
##ry ##l
ca ##ia
heart ##y
improve ##ment
##w ##a
psych ##ological
haph ##azard
ke ##ita
mel ##aina
beck ##oning
boss ##y
##or ##i
spr ##inting
f ##ences
just ##ified
bel ##ated
think ##in
ed ##gard
ry ##d
v ##ian
unf ##ast
##no ##ff
sh ##ined
hard ##en
dimin ##ished
condes ##ce
demonst ##ration
demonstr ##ate
3 ##4
jud ##ges
coinc ##ident
catal ##og
l ##urch
##k ##ov
caution ##ed
ch ##ur
tri ##vial
furn ##ishing
z ##ig
ke ##ir
star ##ve
horse ##back
equ ##ation
mab ##el
##oo ##per
bar ##rett
fore ##bo
di ##version
hust ##led
unbl ##inking
dis ##ney
extract ##ed
lus ##cious
sizz ##ling
g ##amble
is ##ana
##d ##ale
##us ##ively
red ##s
sing ##ular
ell ##ison
gw ##end
devil ##ish
veget ##able
starb ##ucks
we ##lf
##yl ##van
ver ##l
spect ##ators
labyrin ##th
gl ##ue
spe ##nds
ins ##ert
drift ##s
hyster ##ically
prolo ##gue
##he ##e
##ver ##ted
brend ##an
##r ##ants
fl ##ushing
dies ##el
p ##ak
whoo ##sh
deft ##ly
clement ##ine
to ##ff
bru ##ising
loss ##es
st ##anton
des ##mond
cho ##pping
live ##ly
##ress ##es
mar ##io
gro ##ped
plan ##ks
swim ##s
##arch ##y
ham ##ish
cr ##amp
bat ##ted
represent ##ative
##as ##ters
conf ##ided
ly ##can
wis ##ps
flour ##ish
scur ##rying
forebo ##ding
m ##esh
##es ##ar
bic ##ep
dem ##ol
mir ##acles
round ##ing
for ##s
pro ##ves
super ##v
vide ##os
##re ##hens
sh ##ady
lab ##s
tat ##ij
encirc ##led
tatij ##ana
ass ##et
bott ##led
oo ##zed
ho ##g
cont ##ains
shore ##line
outs ##ider
om ##aha
##m ##us
tr ##isha
introdu ##cing
delic ##iously
qu ##aint
din ##a
aw ##ait
mist ##s
sol ##ace
upset ##ting
mechan ##ic
sculpt ##ure
imp ##enet
rag ##nar
##cept ##ible
val ##ued
carto ##on
##ar ##an
invol ##ves
random ##ly
pal ##er
disli ##ked
con ##ting
car ##amel
comp ##on
dut ##ch
shark ##s
uncom ##mon
const ##ance
vian ##ez
g ##iles
tr ##ish
pu ##dd
##ber ##ing
cons ##um
l ##ulu
ab ##n
ho ##bby
th ##udding
r ##ane
do ##e
out ##run
as ##c
##fl ##ower
relent ##lessly
overre ##act
summ ##it
stret ##cher
accur ##ately
##p ##se
we ##bb
dig ##ger
res ##ulting
sab ##in
thorn ##s
c ##one
lunch ##time
sanche ##z
c ##imil
ash ##lyn
dismiss ##ing
impe ##cc
fr ##ayed
ha ##cking
vers ##us
##fol ##k
o ##ily
acc ##ented
welf ##are
sc ##aven
wonder ##fully
domin ##ique
##rak ##ian
to ##yed
fr ##is
sl ##ug
mon ##aster
rub ##i
st ##ap
mall ##ore
head ##phones
un ##sh
ax ##el
scenar ##ios
unconcer ##ned
priv ##y
t ##ure
##d ##og
bos ##om
f ##umes
for ##lorn
thunder ##ous
doug ##al
mat ##ilda
telep ##athy
embr ##acing
no ##ct
counter ##p
ali ##ah
had ##ge
ex ##iting
##ip ##se
sy ##nt
dismiss ##ive
gro ##ggy
box ##ing
sand ##s
eff ##iciency
share ##s
w ##arth
pe ##ll
gut ##ter
stu ##por
lock ##ers
signific ##antly
infin ##itely
n ##our
robb ##ery
alleg ##iance
he ##idi
disapp ##ointing
##he ##im
kath ##leen
pron ##ounce
wa ##ver
charl ##eston
wh ##ack
mur ##ray
ban ##quet
id ##aho
##if ##es
prec ##ip
sc ##hem
ill ##usions
we ##as
atlant ##is
scraw ##led
##p ##ad
##it ##iously
as ##hen
nonchal ##ant
##per ##ing
intr ##usion
alo ##ft
mat ##hew
blo ##oming
w ##ager
vort ##ex
ro ##gers
bl ##ister
care ##lessly
test ##ament
clut ##tered
goog ##le
pro ##pping
sne ##aky
cont ##am
eng ##aging
cant ##een
f ##izz
##r ##d
ar ##nie
admitted ##ly
call ##iope
peripher ##al
criss ##c
##o ##pp
staff ##an
op ##s
dream ##er
j ##it
impenet ##rable
n ##ab
r ##ips
coun ##ters
unp ##rep
p ##itt
navig ##ate
rumm ##aging
brack ##en
d ##ips
to ##ad
lur ##ked
##at ##ical
ge ##ek
respect ##ing
pe ##ggy
dor ##is
fever ##ish
bloss ##om
erra ##nds
adjo ##ining
m ##ens
re ##ceded
gr ##udge
ra ##pped
capt ##uring
bar ##ns
cop ##ied
tooth ##brush
bliss ##ful
dab ##bed
##b ##ott
##ic ##uous
ex ##tern
gl ##ock
bathroom ##s
heart ##less
land ##lord
##as ##an
##op ##ened
vo ##lley
al ##ana
res ##ented
pl ##ed
us ##her
dan ##y
cl ##ump
tro ##phy
chan ##ning
to ##ken
##ac ##ies
communic ##ating
dwar ##ves
##in ##um
aunt ##s
saving ##s
supervis ##or
hon ##ed
##i ##om
ran ##on
tens ##ing
police ##men
oppos ##ition
##sh ##aw
bax ##ter
lend ##ill
ry ##land
process ##ed
occur ##s
craft ##s
coup ##led
certific ##ate
min ##er
blood ##lust
jack ##y
mur ##gos
transl ##ate
201 ##3
cran ##ked
bound ##ary
irrit ##ably
circumst ##ance
disconcer ##ting
spon ##ge
gurn ##ey
r ##ails
##t ##les
squ ##ire
heart ##beats
col ##oss
nor ##ian
##ucc ##ess
ch ##am
tw ##itter
domin ##ance
gad ##get
ra ##oul
n ##ass
scan ##ner
plant ##ation
colour ##s
shadowhun ##ter
bicy ##cle
##or ##al
fr ##uits
un ##em
ret ##rib
hospital ##ity
##u ##an
gl ##um
pur ##r
condesce ##nding
p ##ou
iron ##ically
enlight ##en
##th ##ought
ad ##apt
rel ##o
amb ##itious
exch ##anging
##v ##ard
as ##ia
##ring ##ton
p ##ate
al ##anna
##ab ##ul
display ##s
writ ##ers
comprehens ##ion
m ##umbles
##an ##ny
keep ##ers
feather ##ed
seld ##on
interv ##ention
p ##ounce
back ##stage
sn ##uff
infuri ##ated
tig ##ers
in ##ade
ro ##les
jack ##al
et ##here
raven ##s
bark ##s
miraculous ##ly
##b ##able
mo ##scow
dispat ##ched
side ##walks
storm ##ing
unf ##olding
north ##west
##for ##ward
apocaly ##pse
cr ##ay
sacrif ##ices
forward ##s
##ylvan ##ia
apprehens ##ive
involunt ##ary
det ##ach
brill ##iance
precaut ##ion
##m ##ac
hut ##ch
h ##ir
ch ##anted
palm ##er
ram ##on
##at ##ious
rins ##ed
k ##rit
jo ##ff
cou ##lter
gun ##shots
sha ##ven
bet ##sy
track ##er
se ##iz
imm ##obile
scra ##wny
uns ##uccess
ev ##olved
ri ##yan
car ##bon
ph ##ilipp
swir ##ls
fast ##est
inherit ##ance
sa ##k
dr ##ooling
whis ##kers
est ##imated
elim ##inated
kah ##li
desol ##ate
##t ##i
he ##fted
un ##armed
ass ##ortment
tast ##y
tab ##lo
cher ##yl
electron ##ics
econ ##omic
##w ##ene
bre ##ck
uncontroll ##able
sw ##itches
ho ##bbled
inv ##al
favor ##ites
fl ##akes
chu ##bby
myri ##ad
pro ##ver
maj ##estic
marvel ##ous
e ##ard
##at ##on
happ ##iest
pour ##s
cart ##on
cyn ##ical
h ##m
prick ##led
alle ##ged
nightcl ##ub
p ##act
el ##ong
cub ##icle
##in ##os
joseph ##ine
mand ##or
sound ##ly
ju ##gg
poison ##ing
sp ##ooked
per ##rin
##ung ##al
cr ##anky
char ##med
condu ##cted
b ##ake
##c ##ils
flat ##tery
##v ##il
al ##umin
after ##sh
will ##power
ryd ##strom
unprep ##ared
comp ##ose
l ##anky
day ##time
mem ##phis
beginning ##s
cu ##z
eg ##wene
sh ##ipped
##ab ##et
insist ##ence
emph ##atically
pres ##umed
outn ##umbered
mart ##ine
ger ##ry
recoll ##ection
j ##arring
un ##inter
sw ##arming
bur ##gu
exh ##aling
triumph ##antly
ghast ##ly
##ons ##o
sor ##gan
organ ##ize
ade ##quate
a ##ft
nam ##eless
scab ##b
alexand ##ria
##g ##ation
dis ##ast
earnest ##ly
red ##uce
hor ##at
bast ##ille
retrib ##ution
o ##aks
##f ##us
##ie ##v
ser ##um
bow ##els
support ##ive
specim ##en
invin ##cible
row ##dy
nin ##ja
rav ##aged
shay ##a
##ed ##a
wh ##ale
cons ##ist
pay ##ton
marc ##ia
p ##iers
##u ##ber
conf ##use
plat ##inum
b ##ess
tri ##pp
tor ##in
tantal ##izing
##ver ##ty
ne ##f
juliet ##te
disting ##uish
##roph ##ob
e ##art
assist ##ants
subsequ ##ent
gr ##illed
si ##xt
i ##ii
his ##ses
fl ##ats
la ##pping
congreg ##ation
##le ##i
mag ##g
crit ##ic
##u ##u
##ah ##s
cha ##ol
similar ##ly
conce ##ived
##aa ##aa
agh ##ast
ken ##ji
rever ##ie
b ##ly
mind ##y
desp ##ise
cuff ##ed
hyster ##ia
del ##ph
pap ##ar
sid ##ney
c ##rib
clim ##ate
dread ##ing
market ##ing
mant ##ra
pau ##la
tah ##ir
l ##ann
lit ##he
jag ##r
ens ##uring
dahl ##ia
p ##iling
##b ##ank
##on ##os
cr ##us
##bo ##ys
bill ##ions
c ##ens
##be ##an
comp ##ly
mar ##gie
celebr ##ated
co ##als
disast ##rous
##ik ##i
tu ##x
eh ##lana
bush ##y
categ ##ory
v ##u
amate ##ur
bl ##oke
sn ##acks
po ##verty
mon ##keys
gild ##ed
s ##ine
mag ##es
exec ##ute
scru ##bs
fauc ##et
wither ##ed
disturb ##ance
n ##isha
##ous ##ing
bar ##rage
target ##ed
adv ##ances
rot ##ated
death ##ly
snort ##s
whirl ##wind
k ##on
sp ##aced
sc ##ooping
m ##acy
bo ##on
tact ##ical
respect ##fully
public ##ity
econ ##om
orphan ##age
brav ##ado
el ##astic
air ##lock
prof ##use
approp ##ri
lore ##lei
##l ##ook
lind ##say
intellect ##ual
madd ##ening
burgu ##ndy
a ##kin
arm ##and
gent ##leness
inj ##ected
perpet ##ual
unden ##iable
no ##ir
eng ##rossed
law ##son
est ##her
whis ##ked
post ##p
mult ##itude
f ##aked
wink ##y
incomp ##et
on ##going
jo ##ins
bas ##ics
ro ##ars
trem ##ors
asce ##nd
lif ##es
l ##ail
co ##c
cred ##its
virt ##ual
tipto ##ed
air ##borne
sleep ##ily
tur ##f
barre ##led
coord ##inates
##ub ##us
question ##ingly
ah ##h
quint ##on
inv ##ade
tur ##ret
cryst ##all
protest ##ing
bor ##ne
do ##zed
##um ##i
sk ##ate
k ##ittens
##e ##nds
an ##sel
sl ##ump
rep ##er
ak ##iva
##act ##ic
real ##istic
wr ##ites
regret ##ting
conspir ##ator
barbec ##ue
l ##uminous
need ##less
interrupt ##s
frag ##rant
inqu ##iry
demonst ##rated
##l ##ier
##et ##own
fl ##op
el ##usive
forth ##coming
anci ##ents
verd ##ict
year ##ned
hul ##king
disreg ##ard
##se ##i
sub ##ter
f ##aux
cor ##set
enjoy ##able
l ##anthe
buck ##ets
nap ##ole
##mark ##s
v ##id
##u ##ers
##it ##ory
obst ##acles
rehears ##al
f ##ails
##w ##en
sc ##atter
square ##s
interv ##als
pavil ##ion
##t ##ion
##em ##ption
rick ##ety
##mark ##et
se ##ep
rep ##airs
rel ##inqu
pret ##ense
l ##ured
v ##ult
tim ##er
rec ##liner
cla ##ust
narrow ##ly
quar ##rel
mil ##ton
ce ##cil
rid ##ges
appreci ##ative
##bre ##aking
se ##wing
cas ##per
s ##ardon
##et ##on
room ##mates
mor ##bid
pel ##vis
inco ##herent
p ##ooling
down ##hill
rid ##ley
##hh ##h
ky ##ler
journal ##ist
recru ##its
ha ##p
squ ##aw
persp ##iration
kels ##ier
ting ##e
puff ##s
booth ##s
##p ##ool
##ee ##ee
straight ##forward
unc ##anny
##go ##i
terrif ##ic
sorcer ##ess
consol ##ation
ghou ##ls
##l ##iest
##ens ##en
vin ##ny
greed ##ily
pl ##ank
how ##ls
la ##unching
coun ##se
z ##and
un ##naturally
inquis ##itor
marg ##in
cri ##ppled
say ##in
bu ##gger
rec ##y
div ##ul
lim ##ply
sidest ##e
r ##ith
##f ##olded
##ful ##ness
rel ##oc
gall ##op
##own ##ed
bed ##time
ma ##f
fidd ##ling
d ##ud
har ##ass
##igg ##in
hol ##mes
gr ##is
ken ##n
alt ##itude
warth ##rop
c ##orm
##ke ##e
we ##aken
sl ##opes
ve ##iled
rel ##ented
band ##its
neighb ##our
org ##asms
phenomen ##on
c ##elt
r ##iddle
w ##iry
orch ##ard
past ##ure
ru ##pert
orig ##ins
##olog ##ists
repair ##ed
bra ##nded
sne ##aked
x ##anth
co ##gn
ver ##ify
201 ##2
ded ##ication
beha ##ving
tapest ##ry
ad ##ore
##at ##ra
right ##ed
car ##ib
hopeless ##ly
at ##re
fur ##t
j ##orge
gre ##yson
furnishing ##s
g ##im
z ##ep
capt ##ors
discuss ##ions
obtain ##ed
ca ##ld
eight ##eenth
clo ##aks
pupp ##ies
unim ##ag
ethere ##al
claust ##rophob
numb ##ing
al ##orn
tol ##ned
ever ##g
mood ##s
##roll ##ing
' ##-
se ##als
co ##con
##hand ##ed
on ##o
##row ##th
resc ##uing
musk ##et
unru ##ly
##ann ##i
crowd ##ing
##an ##ah
ma ##ura
fa ##eries
jour ##n
alche ##m
g ##our
##v ##ael
eng ##raved
gwen ##vael
n ##oose
p ##agan
gra ##ff
cab ##les
punct ##uated
##thor ##ne
recogn ##ise
eb ##ony
decor ##ating
mushroom ##s
stri ##pper
fest ##iv
re ##i
so ##les
fidget ##ing
r ##ains
prop ##ortion
bound ##s
keen ##an
n ##ike
stra ##gg
cam ##i
aim ##lessly
contag ##ious
forg ##iving
butt ##s
dish ##was
boast ##ed
##is ##man
sh ##an
chart ##s
##it ##udes
re ##bo
app ##end
cy ##cles
sed ##uced
##iche ##ver
mor ##p
pay ##back
emotion ##less
gin ##ny
mercen ##ary
un ##ac
##ire ##z
sk ##ys
sen ##ate
##ab ##as
hate ##ful
##ill ##en
stall ##ed
##os ##a
shaw ##l
p ##omp
mon ##ika
pix ##y
shower ##ing
exception ##ally
door ##man
hi ##ked
polit ##ician
proceed ##ings
dil ##ig
sans ##a
skit ##tered
sa ##g
kings ##ley
temp ##est
spook ##y
b ##erg
d ##ye
wh ##ores
part ##ying
cy ##rus
element ##ary
vick ##i
thin ##ning
respect ##s
plu ##cking
d ##ion
st ##itched
wh ##ichever
bu ##gged
blood ##st
jol ##ene
tag ##s
ted ##ious
seet ##hed
##at ##y
im ##itation
cho ##ir
disc ##ount
ram ##irez
rene ##g
sp ##arring
arm ##rest
ang ##ling
hesit ##ates
fix ##ated
choo ##ses
fr ##ying
gr ##ating
surg ##ical
dizz ##ying
r ##our
le ##agues
mercen ##aries
se ##line
has ##h
rep ##rieve
ge ##nder
matthew ##s
chir ##ped
pla ##usible
con ##cess
##fe ##w
comm ##itting
draw ##l
carpet ##ed
to ##ms
sc ##ans
bar ##nes
stra ##nded
smell ##y
mil ##ord
suff ##ice
fred ##dy
##ur ##ities
tra ##its
liv ##id
on ##ions
st ##itch
mo ##or
gi ##o
vis ##or
witness ##ing
spect ##acles
##il ##ated
mar ##na
ju ##ven
rour ##ke
cer ##amic
encoun ##ters
kier ##a
c ##ac
co ##il
wr ##ung
inf ##r
bro ##ch
james ##on
gree ##ce
patro ##ls
break ##up
tur ##bul
verl ##aine
fr ##ay
ran ##king
unle ##ash
g ##arth
##m ##all
rec ##laim
impuls ##ive
bar ##bed
infuri ##ating
de ##ird
cr ##ater
prob ##ed
contin ##uous
r ##ural
ind ##ig
cut ##h
overl ##ook
overt ##urned
acute ##ly
##bro ##ken
be ##a
##lo ##c
gro ##ping
instinct ##ive
##ab ##y
##at ##ile
gi ##bb
splin ##ters
submer ##ged
k ##aly
he ##tt
co ##vet
cor ##v
list ##ens
thick ##ened
he ##x
inex ##per
jacqu ##eline
papar ##azzi
4 ##1
intimid ##ate
ecc ##ent
w ##aded
##ab ##out
read ##ied
ash ##ore
mcke ##ll
k ##ist
y ##ah
me ##ager
se ##aling
diplom ##atic
viol ##in
intru ##ders
r ##het
##ri ##ve
clos ##ure
disp ##atch
owners ##hip
nur ##t
public ##ly
reflex ##es
to ##ying
##un ##es
shar ##ma
monaster ##y
techn ##ician
##an ##im
un ##gr
pe ##bbles
notice ##ably
k ##if
lail ##a
##d ##i
man ##ila
compet ##ent
frost ##ed
bac ##ter
f ##ow
v ##itt
##us ##a
helicop ##ters
pleas ##ures
special ##ty
blur ##ring
datab ##ase
##d ##am
fr ##aming
morgan ##a
rue ##ful
unmar ##ked
me ##i
##qu ##el
##sw ##orth
ru ##se
##el ##f
heart ##break
mor ##oi
analy ##ze
prem ##ises
kath ##ryn
lear ##nt
gener ##ated
unhe ##ard
##am ##as
am ##p
rust ##led
shr ##inking
vary ##ing
none ##x
pow ##d
##co ##d
appoint ##ments
exception ##al
ira ##q
sixt ##ies
##he ##ment
ne ##lla
##be ##e
des ##irable
sad ##istic
mich ##igan
##ss ##en
blur ##t
jew ##eled
indust ##ries
harv ##ard
ding ##y
kilomet ##ers
v ##oted
din ##na
ble ##ached
snow ##fl
lefto ##ver
##m ##or
##it ##as
an ##om
man ##ning
coo ##ed
mound ##s
reinforce ##ments
##w ##y
bl ##ared
fl ##ipp
tell ##tale
athe ##na
f ##int
p ##ies
de ##ity
dis ##inter
ca ##ked
dut ##ifully
d ##mit
h ##ath
ha ##unches
le ##ant
dig ##s
depend ##ent
end ##ings
dec ##ad
vis ##c
mart ##a
yan ##ks
gall ##oran
wist ##fully
le ##gg
obed ##ience
aub ##rey
stri ##goi
position ##ing
t ##ane
in ##put
ve ##hement
cor ##k
##abul ##ary
v ##ip
rep ##et
que ##er
sm ##al
par ##ap
complic ##ations
cavern ##ous
interf ##ering
g ##ait
##t ##an
##t ##ons
co ##e
ball ##oons
counter ##top
mold ##ed
attent ##ive
vamp ##ir
chair ##man
harm ##on
ratt ##les
extern ##al
l ##er
##ru ##nt
bra ##ids
nap ##kins
affect ##ing
exting ##uished
horizont ##al
##h ##ist
de ##acon
chr ##iss
viol ##ated
les ##ley
deird ##re
rel ##ied
ann ##ih
ver ##se
oppos ##ing
##wood ##s
ket ##ch
##la ##id
sweat ##pants
kald ##ar
ring ##ed
fond ##ly
high ##land
mary ##ann
sav ##anah
##m ##ill
unf ##ocused
j ##ig
p ##ung
ro ##shan
wall ##paper
fu ##nding
surf ##aces
soph ##om
cel ##ine
inhab ##ited
v ##atic
sn ##out
ant ##ics
rosal ##ind
dr ##ones
feed ##s
accident ##al
coax ##ing
dimension ##al
##he ##lf
sweet ##er
##z ##el
sa ##zed
bet ##s
##co ##gn
lav ##ish
coco ##on
k ##ilt
he ##ater
far ##away
train ##er
mc ##co
top ##ics
fine ##ly
bra ##zen
##ent ##er
mor ##phed
ten ##nes
mant ##le
prose ##c
he ##c
##ir ##ies
sn ##o
sub ##mar
pen ##ns
fil ##ming
j ##h
sens ##it
cre ##ase
riv ##a
sund ##own
unreason ##able
pre ##f
mal ##icious
withd ##rawn
sel ##ene
dishwas ##her
a ##ide
sn ##ip
uns ##usp
##p ##m
bas ##es
millenn ##ia
hu ##b
unlo ##aded
blan ##ched
inf ##at
kitchen ##s
sid ##led
unst ##ead
alumin ##um
const ##ricted
scratch ##y
fle ##cks
raven ##ous
wond ##rous
4 ##7
an ##te
kn ##ick
spr ##inkled
journ ##als
sock ##et
s ##s
cl ##ave
env ##ied
sty ##led
emphas ##ized
vick ##y
explor ##ation
in ##ky
cl ##ive
pass ##ive
art ##work
nause ##ous
conj ##ure
n ##ook
##co ##ck
psych ##ologist
anticip ##ate
ox ##ford
##it ##utes
care ##t
wood ##ed
##it ##ations
qu ##ill
call ##a
mid ##way
fa ##wn
govern ##ments
preser ##ved
##k ##h
le ##ase
dis ##se
mor ##row
red ##emption
infirm ##ary
pre ##lim
ritual ##s
##ad ##on
pro ##vin
craft ##ed
loos ##ening
bloss ##oms
roast ##ed
paramed ##ics
m ##ott
ta ##wny
skelet ##al
##p ##in
pe ##asant
dav ##y
gu ##ine
l ##ina
un ##used
cur ##vy
delusion ##al
h ##ick
##l ##ins
dor ##ot
shr ##imp
lane ##y
lic ##ensed
integr ##ity
syb ##il
k ##han
obser ##ver
dave ##y
plummet ##ed
e ##k
##b ##ows
##k ##v
accur ##acy
lay ##lah
rain ##y
cur ##ry
bar ##ge
unwra ##pped
in ##gen
announ ##ces
interven ##e
t ##z
par ##ish
full ##er
jam ##a
ignore ##s
que ##asy
v ##ood
sp ##its
thr ##illing
disting ##uished
co ##cking
martin ##i
interview ##ed
phr ##ases
dorot ##hea
su ##g
##sw ##e
under ##lying
di ##xon
jaw ##line
appe ##aled
humid ##ity
tuxed ##o
windows ##ill
w ##ulf
do ##pe
up ##gr
kn ##itted
lu ##kas
la ##pped
tan ##u
##iv ##ating
sla ##very
new ##er
##che ##ted
books ##helf
underest ##imate
person ##a
ind ##ent
ref ##ined
main ##land
indef ##in
kif ##irin
t ##ummy
v ##or
man ##hood
ur ##ine
der ##vish
devast ##ation
##hel ##ves
adv ##ant
dv ##d
c ##ress
co ##aster
bus ##es
skin ##s
brim ##stone
corrupt ##ion
enh ##ance
wall ##ed
cent ##aur
u ##d
ash ##tr
imag ##inable
refer ##ences
impro ##v
##mans ##hip
night ##ly
wind ##ed
tou ##gher
books ##helves
ree ##ve
can ##adian
ca ##ved
mar ##quis
dark ##en
const ##itution
##aly ##a
appl ##au
z ##ap
advert ##ise
as ##a
incl ##ine
19 ##3
##the ##a
p ##ont
re ##ven
cl ##ips
el ##ses
imp ##lying
v ##ans
de ##cks
und ##et
p ##est
dis ##abled
em ##itted
cy ##cl
prim ##arily
eccent ##ric
se ##izing
cal ##ib
overwhel ##m
rot ##ted
ny ##elle
me ##ch
after ##life
grim ##y
fer ##v
caress ##es
recru ##ited
sau ##cer
i ##con
##en ##ach
red ##ding
scabb ##ard
sp ##orted
je ##z
bur ##gers
lay ##ered
cup ##boards
unw ##avering
al ##aric
heart ##broken
bro ##die
beck ##er
##mat ##ched
sprout ##ed
##iff ##y
##izz ##ard
jaim ##ie
cobwe ##bs
tennes ##see
n ##ub
n ##ipping
##it ##ative
on ##look
mem ##o
bank ##er
loung ##ed
nar ##asan
prud ##ence
clums ##ily
loren ##zo
profuse ##ly
##w ##es
vood ##oo
d ##ary
the ##tra
no ##sy
frag ##ment
sass ##enach
ca ##illen
lind ##y
w ##agging
reg ##rou
bur ##rowed
disc ##retion
l ##ag
##n ##ia
sick ##ened
stal ##ks
fract ##ured
##ap ##id
el ##iot
expect ##ant
aud ##io
indo ##ors
##dd ##er
dr ##illed
bask ##ets
ker ##rick
succumb ##ed
##h ##ips
ar ##lene
rock ##er
surf ##ing
k ##es
head ##line
murder ##ers
gem ##s
sl ##ouched
g ##p
te ##ac
acquaint ##ances
##is ##co
co ##hen
ad ##el
cab ##ins
occur ##rence
partners ##hip
run ##away
met ##is
##fl ##owers
exhib ##it
c ##air
val ##ues
kar ##ma
blaz ##er
riv ##eted
intert ##wined
he ##ss
hay ##es
casual ##ties
reck ##oned
vibr ##ator
bat ##ting
penns ##ylvania
##ur ##b
pet ##ul
object ##ions
freak ##in
brace ##lets
motiv ##ated
us ##er
cer ##i
sizz ##led
skelet ##ons
super ##iors
sab ##elle
f ##ax
##p ##ress
ne ##mes
table ##top
simm ##ering
d ##itched
j ##az
com ##fy
tri ##bal
mil ##os
john ##nie
conven ##iently
pl ##aint
protru ##ded
napole ##on
t ##ark
##ill ##ac
la ##ur
chance ##llor
explod ##es
defense ##less
lords ##hip
v ##ord
##at ##os
out ##cast
back ##drop
sn ##aking
rain ##ier
refuge ##es
run ##ners
rel ##ayed
arg ##us
##rog ##en
misunder ##stood
ab ##l
occup ##ation
##f ##elt
bo ##ar
jas ##nah
pudd ##les
f ##anc
doubt ##fully
ant ##id
pad ##dy
brook ##lyn
##r ##ome
pop ##ulated
k ##ry
w ##agged
##l ##ay
was ##n
ro ##berto
gar ##cia
conce ##aling
bureau ##cr
in ##herent
mor ##ph
h ##ive
##o ##is
sa ##ints
##ro ##ads
inh ##ib
pet ##ition
highlight ##ed
t ##iber
sens ##or
jul ##io
hunt ##s
rout ##es
bl ##aster
mar ##in
flat ##tering
emp ##athy
hero ##ic
ere ##cted
disgr ##ace
ch ##imes
rec ##re
b ##ers
c ##owering
f ##uming
##v ##on
ut ##most
depri ##ved
##w ##ife
un ##ans
table ##cloth
further ##more
ab ##el
##str ##ong
psych ##ology
flaw ##s
recons ##ider
##s ##ight
ble ##nding
gh ##oul
wick ##er
dj ##inn
tramp ##led
cuth ##bert
syll ##able
ex ##or
disg ##runt
ingr ##id
fl ##ows
dec ##ency
coll ##ision
energ ##ies
mar ##gar
ret ##ained
dam ##ian
helm ##ets
immac ##ulate
capit ##ol
ma ##ester
def ##y
tom ##e
rang ##ers
slugg ##ish
##d ##ress
che ##esy
##c ##ap
cad ##illac
p ##i
##w ##he
##ad ##ays
ari ##ana
hast ##ings
fl ##ailed
stuff ##y
investig ##ations
acceler ##ator
spont ##aneous
##nd ##es
bar ##ney
flash ##lights
stock ##y
nort ##heast
##or ##ie
##h ##ad
difficult ##ies
h ##anger
i ##phone
l ##ub
lau ##rent
deal ##ings
ut ##ility
negoti ##ations
comr ##ade
underest ##imated
3 ##7
tim ##ed
sent ##ry
din ##ah
fan ##ny
th ##ug
chand ##ler
##c ##akes
supp ##le
camp ##ed
f ##iddle
psychiat ##rist
was ##hes
just ##ine
tall ##est
cos ##m
catal ##ina
unconscious ##ness
d ##ummy
must ##ve
rand ##olph
##n ##or
dise ##ases
lud ##ic
unt ##hink
rever ##ence
remo ##ves
kad ##an
drag ##os
deb ##ts
incomp ##rehens
advant ##ages
the ##oret
as ##ha
fr ##iggin
coo ##ks
capt ##or
prick ##ly
bl ##acked
kaly ##na
all ##eys
##ak ##a
mast ##or
##osc ##ope
o ##ars
fan ##ning
manip ##ulation
ludic ##rous
deck ##er
shr ##ine
tomato ##es
unstead ##ily
sw ##oon
stat ##ure
insane ##ly
n ##oodles
can ##ned
s ##acks
det ##ention
##gr ##im
##v ##at
whist ##les
eleg ##antly
overt ##ook
##b ##us
bul ##bs
gurg ##ling
found ##ed
summ ##ons
ju ##ices
pers ##ist
f ##aking
imm ##ob
attend ##ants
ecl ##ipse
pung ##ent
e ##wan
el ##in
dece ##it
sib ##ling
##ro ##it
dr ##ooped
l ##aces
p ##ly
stab ##ility
y ##all
myst ##ic
kent ##ucky
the ##a
##ab ##a
now ##adays
unc ##l
final ##ity
nic ##est
zach ##arel
prem ##ature
al ##oof
per ##ks
ass ##isted
pout ##ing
ele ##c
julian ##ne
##d ##ar
##ma ##ids
bright ##est
gal ##a
ros ##lyn
sentiment ##al
fint ##an
c ##c
##w ##rit
##ett ##s
##sh ##am
book ##case
pink ##y
re ##cept
suic ##idal
p ##ounced
jo ##lly
dr ##as
ter ##re
##par ##able
produ ##ctive
mete ##or
sa ##h
rest ##ricted
tab ##s
candid ##ates
attach ##ment
refr ##ain
j ##umbled
l ##uth
philos ##op
##ar ##is
af ##ar
mic ##hel
fel ##ine
treat ##y
dil ##ated
brief ##ing
cub ##s
co ##x
sl ##edge
gra ##pes
recip ##ient
##y ##re
over ##board
call ##ahan
##od ##en
fro ##gs
prop ##ortions
dismiss ##al
cult ##ural
coloss ##al
d ##ain
g ##org
wh ##acked
down ##s
hur ##l
question ##able
sky ##line
clo ##gged
prick ##le
eman ##ated
am ##un
##od ##o
super ##her
narrow ##s
spar ##king
wy ##oming
wea ##ved
valer ##ius
camps ##ite
mut ##t
do ##s
over ##th
un ##spe
skir ##ted
st ##ag
no ##stal
al ##ib
el ##ic
pet ##rified
prod ##ig
##l ##ift
act ##ively
thr ##onos
cheerle ##ader
higg ##ins
stu ##dded
amb ##led
stool ##s
dissol ##ve
quer ##ied
black ##berry
trust ##worthy
mik ##o
spart ##an
pl ##oy
indign ##ant
precaut ##ions
4 ##2
k ##ram
arch ##ives
out ##d
##un ##a
e ##un
en ##er
mas ##tered
brill ##iantly
kn ##ack
sl ##ed
rail ##road
surre ##pt
st ##arr
##au ##g
hur ##ling
fun ##nel
##is ##ance
high ##lights
sex ##iest
pos ##ing
prefer ##ably
net ##her
scru ##ffy
subst ##itute
wield ##ed
##e ##on
cur ##few
special ##ist
##g ##ated
repl ##ayed
nois ##ily
hyper ##vent
un ##av
##ol ##ored
mag ##ick
d ##ork
emp ##ress
scra ##pes
##it ##he
nev ##ada
brus ##que
b ##arth
j ##umble
##it ##zer
wat ##son
cl ##one
monit ##ored
orchest ##ra
##ar ##f
st ##ow
that ##ll
mar ##rok
war ##iness
med ##itation
temper ##atures
furn ##ace
companions ##hip
inconven ##ience
som ##ers
comp ##aring
ret ##r
consid ##ers
casc ##ade
an ##ge
cool ##ness
eyes ##ight
wash ##cloth
##gg ##ers
prof ##its
idiot ##ic
bed ##chamber
hall ##e
cro ##ak
o ##tt
##to ##cks
cru ##cif
wrest ##le
cr ##inging
##ott ##i
ent ##ourage
gar ##n
sniff ##led
manip ##ulating
coward ##ly
eavesdro ##pping
kist ##en
##le ##g
##am ##an
qu ##ipped
mim ##icked
bar ##st
##d ##ad
atl ##as
ree ##ked
rena ##issance
bo ##de
spr ##inging
p ##ane
ch ##it
en ##zo
hu ##ddle
ref ##ill
m ##ard
ste ##ff
foot ##falls
line ##age
account ##ant
enterpr ##ises
carib ##bean
##er ##ate
##ll ##ann
##art ##en
rhy ##llann
ch ##ag
per ##vert
par ##agra
##is ##in
##ipp ##y
massac ##re
bl ##om
pl ##umb
ste ##in
stre ##aking
list ##ing
##igg ##y
len ##nox
bou ##le
unra ##vel
##ire ##ct
hum ##our
chr ##ome
grave ##lly
wheez ##ed
inexpl ##icable
and ##ar
prov ##oke
investig ##ators
muff ##in
p ##ensive
class ##ical
autop ##sy
juven ##ile
child ##s
pur ##ring
art ##istic
rot ##ating
swip ##ing
##c ##row
##v ##ia
sl ##ater
nuzz ##ling
insec ##ure
b ##au
ven ##ice
bloss ##omed
pat ##sy
sentin ##els
treacher ##y
quant ##um
infect ##ious
disgrunt ##led
d ##erm
o ##at
brief ##est
non ##stop
manip ##ul
##b ##ud
ant ##iqu
afterno ##ons
resem ##bling
beet ##le
authent ##ic
belated ##ly
bly ##the
y ##ol
##g ##io
sn ##ide
[...]
